{
    "activation_encodings": {
        "101": [
            {
                "bitwidth": 8,
                "dtype": "int",
                "is_symmetric": "False",
                "max": 0.5059772760260339,
                "min": -0.16254192286846683,
                "offset": -62,
                "scale": 0.002621643917233336
            }
        ],
        "104": [
            {
                "bitwidth": 8,
                "dtype": "int",
                "is_symmetric": "False",
                "max": 0.5067934272701249,
                "min": -0.01641436201684615,
                "offset": -8,
                "scale": 0.002051795252105769
            }
        ],
        "107": [
            {
                "bitwidth": 8,
                "dtype": "int",
                "is_symmetric": "False",
                "max": 0.5204360272954491,
                "min": -0.13331366216435153,
                "offset": -52,
                "scale": 0.0025637242723913754
            }
        ],
        "110": [
            {
                "bitwidth": 8,
                "dtype": "int",
                "is_symmetric": "False",
                "max": 0.5202843186609886,
                "min": -0.012536971533999724,
                "offset": -6,
                "scale": 0.0020894952556666205
            }
        ],
        "113": [
            {
                "bitwidth": 8,
                "dtype": "int",
                "is_symmetric": "False",
                "max": 0.5423243284225464,
                "min": -0.1355810821056366,
                "offset": -51,
                "scale": 0.0026584525903066
            }
        ],
        "116": [
            {
                "bitwidth": 8,
                "dtype": "int",
                "is_symmetric": "False",
                "max": 0.5431526355116683,
                "min": -0.013088015313534176,
                "offset": -6,
                "scale": 0.002181335885589029
            }
        ],
        "119": [
            {
                "bitwidth": 8,
                "dtype": "int",
                "is_symmetric": "False",
                "max": 0.13192908179526236,
                "min": -0.14610328066582773,
                "offset": -134,
                "scale": 0.0010903229900434905
            }
        ],
        "123": [
            {
                "bitwidth": 8,
                "dtype": "int",
                "is_symmetric": "False",
                "max": 0.7058326970128452,
                "min": -0.1512498636456097,
                "offset": -45,
                "scale": 0.0033611080810135485
            }
        ],
        "126": [
            {
                "bitwidth": 8,
                "dtype": "int",
                "is_symmetric": "False",
                "max": 0.727277835502344,
                "min": -0.22377779553918278,
                "offset": -60,
                "scale": 0.0037296299256530463
            }
        ],
        "129": [
            {
                "bitwidth": 8,
                "dtype": "int",
                "is_symmetric": "False",
                "max": 0.7246048103725793,
                "min": -0.023468981712472206,
                "offset": -8,
                "scale": 0.0029336227140590258
            }
        ],
        "132": [
            {
                "bitwidth": 8,
                "dtype": "int",
                "is_symmetric": "False",
                "max": 0.7625803526710062,
                "min": -0.20970959698452668,
                "offset": -55,
                "scale": 0.0038129017633550307
            }
        ],
        "135": [
            {
                "bitwidth": 8,
                "dtype": "int",
                "is_symmetric": "False",
                "max": 0.7625139895607443,
                "min": -0.02152257228598875,
                "offset": -7,
                "scale": 0.003074653183712679
            }
        ],
        "138": [
            {
                "bitwidth": 8,
                "dtype": "int",
                "is_symmetric": "False",
                "max": 0.23400905856899185,
                "min": -0.25510823598095017,
                "offset": -133,
                "scale": 0.001918107037450753
            }
        ],
        "142": [
            {
                "bitwidth": 8,
                "dtype": "int",
                "is_symmetric": "False",
                "max": 1.3656536305651945,
                "min": -0.2616439198746401,
                "offset": -41,
                "scale": 0.006381559021332685
            }
        ],
        "145": [
            {
                "bitwidth": 8,
                "dtype": "int",
                "is_symmetric": "False",
                "max": 1.5069517757378372,
                "min": -0.45362323861496123,
                "offset": -59,
                "scale": 0.00768852946805019
            }
        ],
        "148": [
            {
                "bitwidth": 8,
                "dtype": "int",
                "is_symmetric": "False",
                "max": 1.5093217748052934,
                "min": -0.042601824288859086,
                "offset": -7,
                "scale": 0.006085974898408441
            }
        ],
        "151": [
            {
                "bitwidth": 8,
                "dtype": "int",
                "is_symmetric": "False",
                "max": 1.438479338089625,
                "min": -0.40479820569356284,
                "offset": -56,
                "scale": 0.00722853938738505
            }
        ],
        "154": [
            {
                "bitwidth": 8,
                "dtype": "int",
                "is_symmetric": "False",
                "max": 1.4362161027450187,
                "min": -0.040538357738770694,
                "offset": -7,
                "scale": 0.005791193962681527
            }
        ],
        "157": [
            {
                "bitwidth": 8,
                "dtype": "int",
                "is_symmetric": "False",
                "max": 0.4140294124098385,
                "min": -0.4806951652554905,
                "offset": -137,
                "scale": 0.0035087238339816824
            }
        ],
        "161": [
            {
                "bitwidth": 8,
                "dtype": "int",
                "is_symmetric": "False",
                "max": 2.40220750114497,
                "min": -0.5009342656416051,
                "offset": -44,
                "scale": 0.011384869673672844
            }
        ],
        "164": [
            {
                "bitwidth": 8,
                "dtype": "int",
                "is_symmetric": "False",
                "max": 2.3255166229079753,
                "min": -0.8120851699043723,
                "offset": -66,
                "scale": 0.012304320756126853
            }
        ],
        "167": [
            {
                "bitwidth": 8,
                "dtype": "int",
                "is_symmetric": "False",
                "max": 2.32494580903474,
                "min": -0.08505899301346612,
                "offset": -9,
                "scale": 0.009450999223718457
            }
        ],
        "170": [
            {
                "bitwidth": 8,
                "dtype": "int",
                "is_symmetric": "False",
                "max": 2.404394443128623,
                "min": -0.7078927802104577,
                "offset": -58,
                "scale": 0.012205047934663062
            }
        ],
        "173": [
            {
                "bitwidth": 8,
                "dtype": "int",
                "is_symmetric": "False",
                "max": 2.4048313007635227,
                "min": -0.0678783028441317,
                "offset": -7,
                "scale": 0.009696900406304528
            }
        ],
        "177": [
            {
                "bitwidth": 8,
                "dtype": "int",
                "is_symmetric": "False",
                "max": 4.017119738634895,
                "min": -1.7377428082858815,
                "offset": -77,
                "scale": 0.022568088419297163
            }
        ],
        "180": [
            {
                "bitwidth": 8,
                "dtype": "int",
                "is_symmetric": "False",
                "max": 1.222442908380546,
                "min": -1.3537797497768027,
                "offset": -134,
                "scale": 0.01010283395355823
            }
        ],
        "184": [
            {
                "bitwidth": 16,
                "dtype": "int",
                "is_symmetric": "False",
                "max": 0.7221749367589871,
                "min": -0.8361449895029147,
                "offset": -35164,
                "scale": 2.3778437876888714e-05
            }
        ],
        "47": [
            {
                "bitwidth": 8,
                "dtype": "int",
                "is_symmetric": "False",
                "max": 2.1227093864889706,
                "min": -1.7436541389016544,
                "offset": -115,
                "scale": 0.015162209903492646
            }
        ],
        "50": [
            {
                "bitwidth": 8,
                "dtype": "int",
                "is_symmetric": "False",
                "max": 2.0621710833381206,
                "min": -1.74836244022145,
                "offset": -117,
                "scale": 0.014943268719841453
            }
        ],
        "53": [
            {
                "bitwidth": 8,
                "dtype": "int",
                "is_symmetric": "False",
                "max": 2.0635731024485007,
                "min": -0.17562324276157454,
                "offset": -20,
                "scale": 0.008781162138078728
            }
        ],
        "56": [
            {
                "bitwidth": 8,
                "dtype": "int",
                "is_symmetric": "False",
                "max": 2.163066605726878,
                "min": -0.7865696748097737,
                "offset": -68,
                "scale": 0.011567201100143731
            }
        ],
        "59": [
            {
                "bitwidth": 8,
                "dtype": "int",
                "is_symmetric": "False",
                "max": 2.165203069939333,
                "min": -0.07921474646119511,
                "offset": -9,
                "scale": 0.008801638495688345
            }
        ],
        "62": [
            {
                "bitwidth": 8,
                "dtype": "int",
                "is_symmetric": "False",
                "max": 1.2579562505086264,
                "min": -1.100711719195048,
                "offset": -119,
                "scale": 0.009249678312563429
            }
        ],
        "65": [
            {
                "bitwidth": 8,
                "dtype": "int",
                "is_symmetric": "False",
                "max": 1.373769863914041,
                "min": -1.1647179281010347,
                "offset": -117,
                "scale": 0.00995485408633363
            }
        ],
        "68": [
            {
                "bitwidth": 8,
                "dtype": "int",
                "is_symmetric": "False",
                "max": 1.3718132914281358,
                "min": -0.11675006735558603,
                "offset": -20,
                "scale": 0.005837503367779302
            }
        ],
        "71": [
            {
                "bitwidth": 8,
                "dtype": "int",
                "is_symmetric": "False",
                "max": 1.2859452890414818,
                "min": -0.36187405118755267,
                "offset": -56,
                "scale": 0.006462036628349155
            }
        ],
        "74": [
            {
                "bitwidth": 8,
                "dtype": "int",
                "is_symmetric": "False",
                "max": 1.2871037099875655,
                "min": -0.03632954020126193,
                "offset": -7,
                "scale": 0.00518993431446599
            }
        ],
        "77": [
            {
                "bitwidth": 8,
                "dtype": "int",
                "is_symmetric": "False",
                "max": 0.8143696467081706,
                "min": -0.7125734408696492,
                "offset": -119,
                "scale": 0.005988012108148313
            }
        ],
        "80": [
            {
                "bitwidth": 8,
                "dtype": "int",
                "is_symmetric": "False",
                "max": 0.7972632744733025,
                "min": -0.7429044148501228,
                "offset": -123,
                "scale": 0.006039873291464413
            }
        ],
        "83": [
            {
                "bitwidth": 8,
                "dtype": "int",
                "is_symmetric": "False",
                "max": 0.7967730129174158,
                "min": -0.07523178662739548,
                "offset": -22,
                "scale": 0.0034196266648816127
            }
        ],
        "86": [
            {
                "bitwidth": 8,
                "dtype": "int",
                "is_symmetric": "False",
                "max": 0.697304825221791,
                "min": -0.27968819912742166,
                "offset": -73,
                "scale": 0.003831345193526324
            }
        ],
        "89": [
            {
                "bitwidth": 8,
                "dtype": "int",
                "is_symmetric": "False",
                "max": 0.6959531030380258,
                "min": -0.028406249103592893,
                "offset": -10,
                "scale": 0.002840624910359289
            }
        ],
        "92": [
            {
                "bitwidth": 8,
                "dtype": "int",
                "is_symmetric": "False",
                "max": 0.4091215854766322,
                "min": -0.4530767971394109,
                "offset": -134,
                "scale": 0.0033811701279060514
            }
        ],
        "95": [
            {
                "bitwidth": 8,
                "dtype": "int",
                "is_symmetric": "False",
                "max": 0.49700461941606855,
                "min": -0.48544637245290423,
                "offset": -126,
                "scale": 0.003852748987721462
            }
        ],
        "98": [
            {
                "bitwidth": 8,
                "dtype": "int",
                "is_symmetric": "False",
                "max": 0.4951467054731706,
                "min": -0.049087819939150526,
                "offset": -23,
                "scale": 0.0021342530408326316
            }
        ],
        "t.1": [
            {
                "bitwidth": 16,
                "dtype": "int",
                "is_symmetric": "False",
                "max": 0.9999999403953552,
                "min": 0.0,
                "offset": 0,
                "scale": 1.5259020987187842e-05
            }
        ]
    },
    "excluded_layers": [],
    "param_encodings": {
        "dnet1.conv1.blocks.0.conv_reparam.weight": [
            {
                "bitwidth": 8,
                "dtype": "int",
                "is_symmetric": "True",
                "max": 1.0329991579055786,
                "min": -1.0411330095426303,
                "offset": -128,
                "scale": 0.0081338516370518
            },
            {
                "bitwidth": 8,
                "dtype": "int",
                "is_symmetric": "True",
                "max": 1.0114721059799194,
                "min": -1.0194364532711,
                "offset": -128,
                "scale": 0.007964347291180469
            },
            {
                "bitwidth": 8,
                "dtype": "int",
                "is_symmetric": "True",
                "max": 0.9683976173400879,
                "min": -0.97602279542938,
                "offset": -128,
                "scale": 0.007625178089292031
            },
            {
                "bitwidth": 8,
                "dtype": "int",
                "is_symmetric": "True",
                "max": 0.9179396033287048,
                "min": -0.9251674742210568,
                "offset": -128,
                "scale": 0.0072278708923520065
            },
            {
                "bitwidth": 8,
                "dtype": "int",
                "is_symmetric": "True",
                "max": 1.0735055208206177,
                "min": -1.0819583201971579,
                "offset": -128,
                "scale": 0.008452799376540296
            },
            {
                "bitwidth": 8,
                "dtype": "int",
                "is_symmetric": "True",
                "max": 0.94907546043396,
                "min": -0.9565484955554872,
                "offset": -128,
                "scale": 0.007473035121527243
            },
            {
                "bitwidth": 8,
                "dtype": "int",
                "is_symmetric": "True",
                "max": 1.0354366302490234,
                "min": -1.0435896745816928,
                "offset": -128,
                "scale": 0.008153044332669475
            },
            {
                "bitwidth": 8,
                "dtype": "int",
                "is_symmetric": "True",
                "max": 1.01544189453125,
                "min": -1.0234375,
                "offset": -128,
                "scale": 0.00799560546875
            },
            {
                "bitwidth": 8,
                "dtype": "int",
                "is_symmetric": "True",
                "max": 0.9853736162185669,
                "min": -0.9931324635903667,
                "offset": -128,
                "scale": 0.00775884737179974
            },
            {
                "bitwidth": 8,
                "dtype": "int",
                "is_symmetric": "True",
                "max": 1.0447807312011719,
                "min": -1.0530073511318898,
                "offset": -128,
                "scale": 0.00822661993071789
            },
            {
                "bitwidth": 8,
                "dtype": "int",
                "is_symmetric": "True",
                "max": 1.148422360420227,
                "min": -1.1574650561715674,
                "offset": -128,
                "scale": 0.00904269575134037
            },
            {
                "bitwidth": 8,
                "dtype": "int",
                "is_symmetric": "True",
                "max": 0.9834926128387451,
                "min": -0.9912366491603101,
                "offset": -128,
                "scale": 0.007744036321564922
            },
            {
                "bitwidth": 8,
                "dtype": "int",
                "is_symmetric": "True",
                "max": 1.0017743110656738,
                "min": -1.0096622977669782,
                "offset": -128,
                "scale": 0.007887986701304518
            },
            {
                "bitwidth": 8,
                "dtype": "int",
                "is_symmetric": "True",
                "max": 0.9129216074943542,
                "min": -0.920109966608483,
                "offset": -128,
                "scale": 0.007188359114128773
            },
            {
                "bitwidth": 8,
                "dtype": "int",
                "is_symmetric": "True",
                "max": 0.9948771595954894,
                "min": -1.0027108380175012,
                "offset": -128,
                "scale": 0.007833678422011728
            },
            {
                "bitwidth": 8,
                "dtype": "int",
                "is_symmetric": "True",
                "max": 1.0178320407867432,
                "min": -1.025846466304749,
                "offset": -128,
                "scale": 0.008014425518005852
            },
            {
                "bitwidth": 8,
                "dtype": "int",
                "is_symmetric": "True",
                "max": 0.9739603996276855,
                "min": -0.981629379152313,
                "offset": -128,
                "scale": 0.007668979524627445
            },
            {
                "bitwidth": 8,
                "dtype": "int",
                "is_symmetric": "True",
                "max": 0.934237003326416,
                "min": -0.941593200203002,
                "offset": -128,
                "scale": 0.007356196876585953
            },
            {
                "bitwidth": 8,
                "dtype": "int",
                "is_symmetric": "True",
                "max": 0.9475606679916382,
                "min": -0.9550217756136196,
                "offset": -128,
                "scale": 0.007461107621981403
            },
            {
                "bitwidth": 8,
                "dtype": "int",
                "is_symmetric": "True",
                "max": 0.9434901475906372,
                "min": -0.9509192038708785,
                "offset": -128,
                "scale": 0.007429056280241238
            },
            {
                "bitwidth": 8,
                "dtype": "int",
                "is_symmetric": "True",
                "max": 0.9524067044258118,
                "min": -0.9599059698149914,
                "offset": -128,
                "scale": 0.007499265389179621
            },
            {
                "bitwidth": 8,
                "dtype": "int",
                "is_symmetric": "True",
                "max": 0.9765360951423645,
                "min": -0.9842253557340367,
                "offset": -128,
                "scale": 0.007689260591672162
            },
            {
                "bitwidth": 8,
                "dtype": "int",
                "is_symmetric": "True",
                "max": 0.9657198190689087,
                "min": -0.9733239121324434,
                "offset": -128,
                "scale": 0.007604093063534714
            },
            {
                "bitwidth": 8,
                "dtype": "int",
                "is_symmetric": "True",
                "max": 0.9592409133911133,
                "min": -0.966793991449311,
                "offset": -128,
                "scale": 0.007553078058197742
            },
            {
                "bitwidth": 8,
                "dtype": "int",
                "is_symmetric": "True",
                "max": 0.9846178889274597,
                "min": -0.9923707856906681,
                "offset": -128,
                "scale": 0.007752896763208344
            },
            {
                "bitwidth": 8,
                "dtype": "int",
                "is_symmetric": "True",
                "max": 0.9171851873397827,
                "min": -0.9244071179487574,
                "offset": -128,
                "scale": 0.007221930608974667
            },
            {
                "bitwidth": 8,
                "dtype": "int",
                "is_symmetric": "True",
                "max": 1.0027707815170288,
                "min": -1.0106666144423597,
                "offset": -128,
                "scale": 0.007895832925330935
            },
            {
                "bitwidth": 8,
                "dtype": "int",
                "is_symmetric": "True",
                "max": 1.0974313020706177,
                "min": -1.1060724934255044,
                "offset": -128,
                "scale": 0.008641191354886753
            },
            {
                "bitwidth": 8,
                "dtype": "int",
                "is_symmetric": "True",
                "max": 1.0027897357940674,
                "min": -1.0106857179656743,
                "offset": -128,
                "scale": 0.00789598217160683
            },
            {
                "bitwidth": 8,
                "dtype": "int",
                "is_symmetric": "True",
                "max": 0.9560329914093018,
                "min": -0.9635608102392963,
                "offset": -128,
                "scale": 0.007527818829994502
            },
            {
                "bitwidth": 8,
                "dtype": "int",
                "is_symmetric": "True",
                "max": 1.0106539726257324,
                "min": -1.018611877921998,
                "offset": -128,
                "scale": 0.007957905296265609
            },
            {
                "bitwidth": 8,
                "dtype": "int",
                "is_symmetric": "True",
                "max": 1.0921343564987183,
                "min": -1.1007338396207553,
                "offset": -128,
                "scale": 0.008599483122037151
            }
        ],
        "dnet1.conv1.blocks.2.rbr_reparam.weight": [
            {
                "bitwidth": 8,
                "dtype": "int",
                "is_symmetric": "True",
                "max": 0.9696822762489319,
                "min": -0.977317569762703,
                "offset": -128,
                "scale": 0.007635293513771117
            },
            {
                "bitwidth": 8,
                "dtype": "int",
                "is_symmetric": "True",
                "max": 1.1420191526412964,
                "min": -1.1510114294337475,
                "offset": -128,
                "scale": 0.008992276792451152
            },
            {
                "bitwidth": 8,
                "dtype": "int",
                "is_symmetric": "True",
                "max": 1.0410469770431519,
                "min": -1.0492441973348303,
                "offset": -128,
                "scale": 0.008197220291678362
            },
            {
                "bitwidth": 8,
                "dtype": "int",
                "is_symmetric": "True",
                "max": 1.0027210712432861,
                "min": -1.0106165127491389,
                "offset": -128,
                "scale": 0.007895441505852648
            },
            {
                "bitwidth": 8,
                "dtype": "int",
                "is_symmetric": "True",
                "max": 1.0402166843414307,
                "min": -1.0484073668953002,
                "offset": -128,
                "scale": 0.008190682553869533
            },
            {
                "bitwidth": 8,
                "dtype": "int",
                "is_symmetric": "True",
                "max": 0.8961008787155151,
                "min": -0.903156791146346,
                "offset": -128,
                "scale": 0.007055912430830828
            },
            {
                "bitwidth": 8,
                "dtype": "int",
                "is_symmetric": "True",
                "max": 1.0077238082885742,
                "min": -1.0156586414247046,
                "offset": -128,
                "scale": 0.007934833136130505
            },
            {
                "bitwidth": 8,
                "dtype": "int",
                "is_symmetric": "True",
                "max": 0.9979754686355592,
                "min": -1.0058335431917447,
                "offset": -128,
                "scale": 0.007858074556185505
            },
            {
                "bitwidth": 8,
                "dtype": "int",
                "is_symmetric": "True",
                "max": 0.8445553183555603,
                "min": -0.8512053602323757,
                "offset": -128,
                "scale": 0.006650041876815435
            },
            {
                "bitwidth": 8,
                "dtype": "int",
                "is_symmetric": "True",
                "max": 1.0510770082473755,
                "min": -1.0593532051627093,
                "offset": -128,
                "scale": 0.008276196915333666
            },
            {
                "bitwidth": 8,
                "dtype": "int",
                "is_symmetric": "True",
                "max": 0.8713558316230774,
                "min": -0.8782169011634166,
                "offset": -128,
                "scale": 0.006861069540339192
            },
            {
                "bitwidth": 8,
                "dtype": "int",
                "is_symmetric": "True",
                "max": 1.053013563156128,
                "min": -1.06130500853531,
                "offset": -128,
                "scale": 0.008291445379182109
            },
            {
                "bitwidth": 8,
                "dtype": "int",
                "is_symmetric": "True",
                "max": 0.8403118848800659,
                "min": -0.8469285138948696,
                "offset": -128,
                "scale": 0.0066166290148036684
            },
            {
                "bitwidth": 8,
                "dtype": "int",
                "is_symmetric": "True",
                "max": 0.9750093221664429,
                "min": -0.9826865609236589,
                "offset": -128,
                "scale": 0.007677238757216085
            },
            {
                "bitwidth": 8,
                "dtype": "int",
                "is_symmetric": "True",
                "max": 0.8926589488983154,
                "min": -0.899687759519562,
                "offset": -128,
                "scale": 0.007028810621246578
            },
            {
                "bitwidth": 8,
                "dtype": "int",
                "is_symmetric": "True",
                "max": 0.8525878190994263,
                "min": -0.859301109013595,
                "offset": -128,
                "scale": 0.006713289914168711
            },
            {
                "bitwidth": 8,
                "dtype": "int",
                "is_symmetric": "True",
                "max": 0.989887535572052,
                "min": -0.9976819256159264,
                "offset": -128,
                "scale": 0.007794390043874425
            },
            {
                "bitwidth": 8,
                "dtype": "int",
                "is_symmetric": "True",
                "max": 0.9604393243789673,
                "min": -0.968001838744156,
                "offset": -128,
                "scale": 0.007562514365188719
            },
            {
                "bitwidth": 8,
                "dtype": "int",
                "is_symmetric": "True",
                "max": 1.1717784404754639,
                "min": -1.1810050423689715,
                "offset": -128,
                "scale": 0.00922660189350759
            },
            {
                "bitwidth": 8,
                "dtype": "int",
                "is_symmetric": "True",
                "max": 1.047101616859436,
                "min": -1.0553465114803764,
                "offset": -128,
                "scale": 0.00824489462094044
            },
            {
                "bitwidth": 8,
                "dtype": "int",
                "is_symmetric": "True",
                "max": 0.8814051151275635,
                "min": -0.8883453128844734,
                "offset": -128,
                "scale": 0.006940197756909948
            },
            {
                "bitwidth": 8,
                "dtype": "int",
                "is_symmetric": "True",
                "max": 0.9632458686828613,
                "min": -0.9708304818220964,
                "offset": -128,
                "scale": 0.007584613139235128
            },
            {
                "bitwidth": 8,
                "dtype": "int",
                "is_symmetric": "True",
                "max": 0.8727825880050659,
                "min": -0.8796548918476255,
                "offset": -128,
                "scale": 0.006872303842559574
            },
            {
                "bitwidth": 8,
                "dtype": "int",
                "is_symmetric": "True",
                "max": 1.0018781423568726,
                "min": -1.009766946627399,
                "offset": -128,
                "scale": 0.007888804270526555
            },
            {
                "bitwidth": 8,
                "dtype": "int",
                "is_symmetric": "True",
                "max": 0.8349013328552246,
                "min": -0.8414753590981792,
                "offset": -128,
                "scale": 0.006574026242954525
            },
            {
                "bitwidth": 8,
                "dtype": "int",
                "is_symmetric": "True",
                "max": 0.8307135105133057,
                "min": -0.8372545617771899,
                "offset": -128,
                "scale": 0.006541051263884296
            },
            {
                "bitwidth": 8,
                "dtype": "int",
                "is_symmetric": "True",
                "max": 0.9076728820800781,
                "min": -0.9148199126476378,
                "offset": -128,
                "scale": 0.007147030567559671
            },
            {
                "bitwidth": 8,
                "dtype": "int",
                "is_symmetric": "True",
                "max": 0.9121833443641663,
                "min": -0.9193658903827817,
                "offset": -128,
                "scale": 0.007182546018615482
            },
            {
                "bitwidth": 8,
                "dtype": "int",
                "is_symmetric": "True",
                "max": 1.07345449924469,
                "min": -1.081906896876538,
                "offset": -128,
                "scale": 0.008452397631847953
            },
            {
                "bitwidth": 8,
                "dtype": "int",
                "is_symmetric": "True",
                "max": 0.8489975333213806,
                "min": -0.8556825532687931,
                "offset": -128,
                "scale": 0.006685019947412446
            },
            {
                "bitwidth": 8,
                "dtype": "int",
                "is_symmetric": "True",
                "max": 1.073545217514038,
                "min": -1.0819983294629676,
                "offset": -128,
                "scale": 0.008453111948929434
            },
            {
                "bitwidth": 8,
                "dtype": "int",
                "is_symmetric": "True",
                "max": 1.1742867231369019,
                "min": -1.1835330752875861,
                "offset": -128,
                "scale": 0.009246352150684266
            }
        ],
        "dnet1.conv2.blocks.0.conv_reparam.weight": [
            {
                "bitwidth": 8,
                "dtype": "int",
                "is_symmetric": "True",
                "max": 0.9488276243209839,
                "min": -0.9562987079770546,
                "offset": -128,
                "scale": 0.007471083656070739
            },
            {
                "bitwidth": 8,
                "dtype": "int",
                "is_symmetric": "True",
                "max": 1.0686782598495483,
                "min": -1.0770930492971826,
                "offset": -128,
                "scale": 0.00841478944763424
            },
            {
                "bitwidth": 8,
                "dtype": "int",
                "is_symmetric": "True",
                "max": 0.9667592644691467,
                "min": -0.9743715421421322,
                "offset": -128,
                "scale": 0.007612277672985408
            },
            {
                "bitwidth": 8,
                "dtype": "int",
                "is_symmetric": "True",
                "max": 1.0518791675567627,
                "min": -1.060161680687131,
                "offset": -128,
                "scale": 0.008282513130368211
            },
            {
                "bitwidth": 8,
                "dtype": "int",
                "is_symmetric": "True",
                "max": 0.9476900100708008,
                "min": -0.9551521361343503,
                "offset": -128,
                "scale": 0.007462126063549612
            },
            {
                "bitwidth": 8,
                "dtype": "int",
                "is_symmetric": "True",
                "max": 1.0467509031295776,
                "min": -1.0549930362250861,
                "offset": -128,
                "scale": 0.008242133095508485
            },
            {
                "bitwidth": 8,
                "dtype": "int",
                "is_symmetric": "True",
                "max": 0.9678747653961182,
                "min": -0.9754958265409694,
                "offset": -128,
                "scale": 0.007621061144851324
            },
            {
                "bitwidth": 8,
                "dtype": "int",
                "is_symmetric": "True",
                "max": 0.8855768442153931,
                "min": -0.8925498902328372,
                "offset": -128,
                "scale": 0.00697304601744404
            },
            {
                "bitwidth": 8,
                "dtype": "int",
                "is_symmetric": "True",
                "max": 0.9062240123748779,
                "min": -0.913359634519562,
                "offset": -128,
                "scale": 0.007135622144684078
            },
            {
                "bitwidth": 8,
                "dtype": "int",
                "is_symmetric": "True",
                "max": 1.0540556907653809,
                "min": -1.0623553418737697,
                "offset": -128,
                "scale": 0.008299651108388826
            },
            {
                "bitwidth": 8,
                "dtype": "int",
                "is_symmetric": "True",
                "max": 1.0118361711502075,
                "min": -1.0198033850962722,
                "offset": -128,
                "scale": 0.007967213946064627
            },
            {
                "bitwidth": 8,
                "dtype": "int",
                "is_symmetric": "True",
                "max": 1.021620273590088,
                "min": -1.0296645277128444,
                "offset": -128,
                "scale": 0.008044254122756597
            },
            {
                "bitwidth": 8,
                "dtype": "int",
                "is_symmetric": "True",
                "max": 0.9480571746826172,
                "min": -0.9555221918061023,
                "offset": -128,
                "scale": 0.007465017123485174
            },
            {
                "bitwidth": 8,
                "dtype": "int",
                "is_symmetric": "True",
                "max": 0.960080087184906,
                "min": -0.9676397729107714,
                "offset": -128,
                "scale": 0.007559685725865402
            },
            {
                "bitwidth": 8,
                "dtype": "int",
                "is_symmetric": "True",
                "max": 0.9903776049613953,
                "min": -0.998175853819359,
                "offset": -128,
                "scale": 0.007798248857963742
            },
            {
                "bitwidth": 8,
                "dtype": "int",
                "is_symmetric": "True",
                "max": 1.0418260097503662,
                "min": -1.0500293641578493,
                "offset": -128,
                "scale": 0.008203354407483198
            },
            {
                "bitwidth": 8,
                "dtype": "int",
                "is_symmetric": "True",
                "max": 0.9267383217811584,
                "min": -0.9340354739211676,
                "offset": -128,
                "scale": 0.007297152140009122
            },
            {
                "bitwidth": 8,
                "dtype": "int",
                "is_symmetric": "True",
                "max": 1.0040234327316284,
                "min": -1.01192912905235,
                "offset": -128,
                "scale": 0.007905696320721484
            },
            {
                "bitwidth": 8,
                "dtype": "int",
                "is_symmetric": "True",
                "max": 0.8427255749702454,
                "min": -0.84936120941883,
                "offset": -128,
                "scale": 0.006635634448584609
            },
            {
                "bitwidth": 8,
                "dtype": "int",
                "is_symmetric": "True",
                "max": 1.041258454322815,
                "min": -1.0494573397899236,
                "offset": -128,
                "scale": 0.008198885467108778
            },
            {
                "bitwidth": 8,
                "dtype": "int",
                "is_symmetric": "True",
                "max": 1.0029207468032837,
                "min": -1.0108177605576403,
                "offset": -128,
                "scale": 0.007897013754356565
            },
            {
                "bitwidth": 8,
                "dtype": "int",
                "is_symmetric": "True",
                "max": 1.0101546049118042,
                "min": -1.0181085781788264,
                "offset": -128,
                "scale": 0.007953973267022081
            },
            {
                "bitwidth": 8,
                "dtype": "int",
                "is_symmetric": "True",
                "max": 0.9854394793510437,
                "min": -0.9931988453301858,
                "offset": -128,
                "scale": 0.007759365979142076
            },
            {
                "bitwidth": 8,
                "dtype": "int",
                "is_symmetric": "True",
                "max": 1.0226622819900513,
                "min": -1.0307147409033588,
                "offset": -128,
                "scale": 0.00805245891330749
            },
            {
                "bitwidth": 8,
                "dtype": "int",
                "is_symmetric": "True",
                "max": 1.0103352069854736,
                "min": -1.0182906023160678,
                "offset": -128,
                "scale": 0.00795539533059428
            },
            {
                "bitwidth": 8,
                "dtype": "int",
                "is_symmetric": "True",
                "max": 1.0485373735427856,
                "min": -1.0567935733344611,
                "offset": -128,
                "scale": 0.008256199791675477
            },
            {
                "bitwidth": 8,
                "dtype": "int",
                "is_symmetric": "True",
                "max": 1.0200884342193604,
                "min": -1.0281206266147884,
                "offset": -128,
                "scale": 0.008032192395428035
            },
            {
                "bitwidth": 8,
                "dtype": "int",
                "is_symmetric": "True",
                "max": 1.1152000427246094,
                "min": -1.1239811454232282,
                "offset": -128,
                "scale": 0.00878110269861897
            },
            {
                "bitwidth": 8,
                "dtype": "int",
                "is_symmetric": "True",
                "max": 0.9207343459129333,
                "min": -0.9279842226524052,
                "offset": -128,
                "scale": 0.007249876739471916
            },
            {
                "bitwidth": 8,
                "dtype": "int",
                "is_symmetric": "True",
                "max": 1.0098137855529785,
                "min": -1.017765075203002,
                "offset": -128,
                "scale": 0.007951289650023454
            },
            {
                "bitwidth": 8,
                "dtype": "int",
                "is_symmetric": "True",
                "max": 0.9730480313301086,
                "min": -0.9807098268523929,
                "offset": -128,
                "scale": 0.00766179552228432
            },
            {
                "bitwidth": 8,
                "dtype": "int",
                "is_symmetric": "True",
                "max": 0.9379796981811523,
                "min": -0.9453653650959646,
                "offset": -128,
                "scale": 0.007385666914812223
            },
            {
                "bitwidth": 8,
                "dtype": "int",
                "is_symmetric": "True",
                "max": 0.9707103967666626,
                "min": -0.9783537857175812,
                "offset": -128,
                "scale": 0.0076433889509186035
            },
            {
                "bitwidth": 8,
                "dtype": "int",
                "is_symmetric": "True",
                "max": 1.0284734964370728,
                "min": -1.0365717129444514,
                "offset": -128,
                "scale": 0.008098216507378526
            },
            {
                "bitwidth": 8,
                "dtype": "int",
                "is_symmetric": "True",
                "max": 1.0846898555755615,
                "min": -1.0932307205800935,
                "offset": -128,
                "scale": 0.00854086500453198
            },
            {
                "bitwidth": 8,
                "dtype": "int",
                "is_symmetric": "True",
                "max": 0.9731302857398987,
                "min": -0.980792728934701,
                "offset": -128,
                "scale": 0.007662443194802352
            },
            {
                "bitwidth": 8,
                "dtype": "int",
                "is_symmetric": "True",
                "max": 0.9972760081291199,
                "min": -1.0051285751222625,
                "offset": -128,
                "scale": 0.007852566993142676
            },
            {
                "bitwidth": 8,
                "dtype": "int",
                "is_symmetric": "True",
                "max": 1.046174168586731,
                "min": -1.0544117604653667,
                "offset": -128,
                "scale": 0.008237591878635677
            },
            {
                "bitwidth": 8,
                "dtype": "int",
                "is_symmetric": "True",
                "max": 1.0027873516082764,
                "min": -1.0106833150067667,
                "offset": -128,
                "scale": 0.007895963398490365
            },
            {
                "bitwidth": 8,
                "dtype": "int",
                "is_symmetric": "True",
                "max": 0.9559999108314514,
                "min": -0.963527469184455,
                "offset": -128,
                "scale": 0.0075275583530035545
            },
            {
                "bitwidth": 8,
                "dtype": "int",
                "is_symmetric": "True",
                "max": 0.9702898263931274,
                "min": -0.9779299037663016,
                "offset": -128,
                "scale": 0.007640077373174231
            },
            {
                "bitwidth": 8,
                "dtype": "int",
                "is_symmetric": "True",
                "max": 1.0120933055877686,
                "min": -1.020062544214444,
                "offset": -128,
                "scale": 0.007969238626675344
            },
            {
                "bitwidth": 8,
                "dtype": "int",
                "is_symmetric": "True",
                "max": 0.8915300369262695,
                "min": -0.89854995847687,
                "offset": -128,
                "scale": 0.007019921550600547
            },
            {
                "bitwidth": 8,
                "dtype": "int",
                "is_symmetric": "True",
                "max": 1.0423110723495483,
                "min": -1.0505182461475764,
                "offset": -128,
                "scale": 0.00820717379802794
            },
            {
                "bitwidth": 8,
                "dtype": "int",
                "is_symmetric": "True",
                "max": 1.0454332828521729,
                "min": -1.0536650409848671,
                "offset": -128,
                "scale": 0.008231758132694274
            },
            {
                "bitwidth": 8,
                "dtype": "int",
                "is_symmetric": "True",
                "max": 1.0344343185424805,
                "min": -1.0425794706569882,
                "offset": -128,
                "scale": 0.00814515211450772
            },
            {
                "bitwidth": 8,
                "dtype": "int",
                "is_symmetric": "True",
                "max": 0.9620600342750549,
                "min": -0.9696353101354884,
                "offset": -128,
                "scale": 0.007575275860433503
            },
            {
                "bitwidth": 8,
                "dtype": "int",
                "is_symmetric": "True",
                "max": 0.9725447297096252,
                "min": -0.9802025622270238,
                "offset": -128,
                "scale": 0.007657832517398624
            },
            {
                "bitwidth": 8,
                "dtype": "int",
                "is_symmetric": "True",
                "max": 1.0207518339157104,
                "min": -1.0287892499307947,
                "offset": -128,
                "scale": 0.008037416015084333
            },
            {
                "bitwidth": 8,
                "dtype": "int",
                "is_symmetric": "True",
                "max": 0.921666145324707,
                "min": -0.9289233590674213,
                "offset": -128,
                "scale": 0.007257213742714229
            },
            {
                "bitwidth": 8,
                "dtype": "int",
                "is_symmetric": "True",
                "max": 0.9759075045585632,
                "min": -0.9835918156180795,
                "offset": -128,
                "scale": 0.007684311059516246
            },
            {
                "bitwidth": 8,
                "dtype": "int",
                "is_symmetric": "True",
                "max": 1.0342411994934082,
                "min": -1.0423848309854822,
                "offset": -128,
                "scale": 0.00814363149207408
            },
            {
                "bitwidth": 8,
                "dtype": "int",
                "is_symmetric": "True",
                "max": 0.96957927942276,
                "min": -0.9772137619378999,
                "offset": -128,
                "scale": 0.007634482515139843
            },
            {
                "bitwidth": 8,
                "dtype": "int",
                "is_symmetric": "True",
                "max": 1.0002036094665527,
                "min": -1.0080792284387303,
                "offset": -128,
                "scale": 0.00787561897217758
            },
            {
                "bitwidth": 8,
                "dtype": "int",
                "is_symmetric": "True",
                "max": 1.1117098331451416,
                "min": -1.1204634538785678,
                "offset": -128,
                "scale": 0.008753620733426311
            },
            {
                "bitwidth": 8,
                "dtype": "int",
                "is_symmetric": "True",
                "max": 0.962898313999176,
                "min": -0.9704801904873586,
                "offset": -128,
                "scale": 0.007581876488182489
            },
            {
                "bitwidth": 8,
                "dtype": "int",
                "is_symmetric": "True",
                "max": 1.0205758810043335,
                "min": -1.0286119115634227,
                "offset": -128,
                "scale": 0.00803603055908924
            },
            {
                "bitwidth": 8,
                "dtype": "int",
                "is_symmetric": "True",
                "max": 0.9983766078948976,
                "min": -1.0062378410279282,
                "offset": -128,
                "scale": 0.00786123313303069
            },
            {
                "bitwidth": 8,
                "dtype": "int",
                "is_symmetric": "True",
                "max": 0.9961920380592346,
                "min": -1.0040360698549766,
                "offset": -128,
                "scale": 0.007844031795742005
            },
            {
                "bitwidth": 8,
                "dtype": "int",
                "is_symmetric": "True",
                "max": 1.0288692712783813,
                "min": -1.036970604123093,
                "offset": -128,
                "scale": 0.008101332844711664
            },
            {
                "bitwidth": 8,
                "dtype": "int",
                "is_symmetric": "True",
                "max": 1.039246916770935,
                "min": -1.0474299633596826,
                "offset": -128,
                "scale": 0.00818304658874752
            },
            {
                "bitwidth": 8,
                "dtype": "int",
                "is_symmetric": "True",
                "max": 1.0433200597763062,
                "min": -1.051535178357222,
                "offset": -128,
                "scale": 0.008215118580915797
            },
            {
                "bitwidth": 8,
                "dtype": "int",
                "is_symmetric": "True",
                "max": 1.0904114246368408,
                "min": -1.0989973413662648,
                "offset": -128,
                "scale": 0.008585916729423944
            },
            {
                "bitwidth": 8,
                "dtype": "int",
                "is_symmetric": "True",
                "max": 0.8887694478034973,
                "min": -0.8957676324318713,
                "offset": -128,
                "scale": 0.0069981846283739945
            }
        ],
        "dnet1.conv2.blocks.2.conv_reparam.weight": [
            {
                "bitwidth": 8,
                "dtype": "int",
                "is_symmetric": "True",
                "max": 0.9680126309394836,
                "min": -0.9756347776397946,
                "offset": -128,
                "scale": 0.007622146700310895
            },
            {
                "bitwidth": 8,
                "dtype": "int",
                "is_symmetric": "True",
                "max": 1.0413726568222046,
                "min": -1.0495724415215921,
                "offset": -128,
                "scale": 0.008199784699387438
            },
            {
                "bitwidth": 8,
                "dtype": "int",
                "is_symmetric": "True",
                "max": 1.0205901861190796,
                "min": -1.0286263293168676,
                "offset": -128,
                "scale": 0.008036143197788028
            },
            {
                "bitwidth": 8,
                "dtype": "int",
                "is_symmetric": "True",
                "max": 1.0726983547210693,
                "min": -1.0811447984590306,
                "offset": -128,
                "scale": 0.008446443737961176
            },
            {
                "bitwidth": 8,
                "dtype": "int",
                "is_symmetric": "True",
                "max": 0.8551000952720642,
                "min": -0.8618331668883796,
                "offset": -128,
                "scale": 0.006733071616315466
            },
            {
                "bitwidth": 8,
                "dtype": "int",
                "is_symmetric": "True",
                "max": 0.9339743852615356,
                "min": -0.941328514279343,
                "offset": -128,
                "scale": 0.007354129017807368
            },
            {
                "bitwidth": 8,
                "dtype": "int",
                "is_symmetric": "True",
                "max": 1.0215117931365967,
                "min": -1.0295551930825542,
                "offset": -128,
                "scale": 0.008043399945957454
            },
            {
                "bitwidth": 8,
                "dtype": "int",
                "is_symmetric": "True",
                "max": 0.9640811085700989,
                "min": -0.9716722984013595,
                "offset": -128,
                "scale": 0.007591189831260621
            },
            {
                "bitwidth": 8,
                "dtype": "int",
                "is_symmetric": "True",
                "max": 1.014424443244934,
                "min": -1.0224120372862329,
                "offset": -128,
                "scale": 0.007987594041298694
            },
            {
                "bitwidth": 8,
                "dtype": "int",
                "is_symmetric": "True",
                "max": 1.0441654920578003,
                "min": -1.0523872675858146,
                "offset": -128,
                "scale": 0.008221775528014176
            },
            {
                "bitwidth": 8,
                "dtype": "int",
                "is_symmetric": "True",
                "max": 0.963638186454773,
                "min": -0.9712258887103223,
                "offset": -128,
                "scale": 0.007587702255549393
            },
            {
                "bitwidth": 8,
                "dtype": "int",
                "is_symmetric": "True",
                "max": 0.9733006954193115,
                "min": -0.9809644804226132,
                "offset": -128,
                "scale": 0.007663785003301666
            },
            {
                "bitwidth": 8,
                "dtype": "int",
                "is_symmetric": "True",
                "max": 1.0181068181991577,
                "min": -1.0261234073188361,
                "offset": -128,
                "scale": 0.008016589119678407
            },
            {
                "bitwidth": 8,
                "dtype": "int",
                "is_symmetric": "True",
                "max": 0.9508321285247803,
                "min": -0.9583189956785187,
                "offset": -128,
                "scale": 0.007486867153738428
            },
            {
                "bitwidth": 8,
                "dtype": "int",
                "is_symmetric": "True",
                "max": 0.9473930597305298,
                "min": -0.9548528476024237,
                "offset": -128,
                "scale": 0.007459787871893935
            },
            {
                "bitwidth": 8,
                "dtype": "int",
                "is_symmetric": "True",
                "max": 1.0275940895080566,
                "min": -1.035685381551427,
                "offset": -128,
                "scale": 0.008091292043370524
            },
            {
                "bitwidth": 8,
                "dtype": "int",
                "is_symmetric": "True",
                "max": 1.0016077756881714,
                "min": -1.0094944510872907,
                "offset": -128,
                "scale": 0.007886675399119459
            },
            {
                "bitwidth": 8,
                "dtype": "int",
                "is_symmetric": "True",
                "max": 0.994076430797577,
                "min": -1.001903804268424,
                "offset": -128,
                "scale": 0.007827373470847063
            },
            {
                "bitwidth": 8,
                "dtype": "int",
                "is_symmetric": "True",
                "max": 1.0001685619354248,
                "min": -1.0080439049427903,
                "offset": -128,
                "scale": 0.007875343007365549
            },
            {
                "bitwidth": 8,
                "dtype": "int",
                "is_symmetric": "True",
                "max": 1.050769567489624,
                "min": -1.0590433436115896,
                "offset": -128,
                "scale": 0.008273776121965544
            },
            {
                "bitwidth": 8,
                "dtype": "int",
                "is_symmetric": "True",
                "max": 0.9944369196891785,
                "min": -1.002267131655235,
                "offset": -128,
                "scale": 0.007830211966056523
            },
            {
                "bitwidth": 8,
                "dtype": "int",
                "is_symmetric": "True",
                "max": 0.8795533180236816,
                "min": -0.8864789347010334,
                "offset": -128,
                "scale": 0.006925616677351824
            },
            {
                "bitwidth": 8,
                "dtype": "int",
                "is_symmetric": "True",
                "max": 1.0343257188796997,
                "min": -1.0424700158787525,
                "offset": -128,
                "scale": 0.008144296999052754
            },
            {
                "bitwidth": 8,
                "dtype": "int",
                "is_symmetric": "True",
                "max": 1.0277323722839355,
                "min": -1.035824753168061,
                "offset": -128,
                "scale": 0.008092380884125477
            },
            {
                "bitwidth": 8,
                "dtype": "int",
                "is_symmetric": "True",
                "max": 1.0596990585327148,
                "min": -1.0680431456077757,
                "offset": -128,
                "scale": 0.008344087075060748
            },
            {
                "bitwidth": 8,
                "dtype": "int",
                "is_symmetric": "True",
                "max": 0.943771243095398,
                "min": -0.9512025127260704,
                "offset": -128,
                "scale": 0.007431269630672425
            },
            {
                "bitwidth": 8,
                "dtype": "int",
                "is_symmetric": "True",
                "max": 0.9750575423240662,
                "min": -0.9827351607675627,
                "offset": -128,
                "scale": 0.007677618443496584
            },
            {
                "bitwidth": 8,
                "dtype": "int",
                "is_symmetric": "True",
                "max": 1.0565757751464844,
                "min": -1.0648952694389764,
                "offset": -128,
                "scale": 0.008319494292492003
            },
            {
                "bitwidth": 8,
                "dtype": "int",
                "is_symmetric": "True",
                "max": 0.9475189447402954,
                "min": -0.9549797238327387,
                "offset": -128,
                "scale": 0.007460779092443271
            },
            {
                "bitwidth": 8,
                "dtype": "int",
                "is_symmetric": "True",
                "max": 0.9433997273445129,
                "min": -0.9508280716543123,
                "offset": -128,
                "scale": 0.007428344309799315
            },
            {
                "bitwidth": 8,
                "dtype": "int",
                "is_symmetric": "True",
                "max": 0.9559614062309265,
                "min": -0.9634886613980992,
                "offset": -128,
                "scale": 0.00752725516717265
            },
            {
                "bitwidth": 8,
                "dtype": "int",
                "is_symmetric": "True",
                "max": 0.9143705368041992,
                "min": -0.9215703048105315,
                "offset": -128,
                "scale": 0.007199768006332277
            },
            {
                "bitwidth": 8,
                "dtype": "int",
                "is_symmetric": "True",
                "max": 1.0287359952926636,
                "min": -1.0368362787201648,
                "offset": -128,
                "scale": 0.008100283427501288
            },
            {
                "bitwidth": 8,
                "dtype": "int",
                "is_symmetric": "True",
                "max": 1.0553401708602905,
                "min": -1.0636499359851748,
                "offset": -128,
                "scale": 0.008309765124884178
            },
            {
                "bitwidth": 8,
                "dtype": "int",
                "is_symmetric": "True",
                "max": 0.9914034605026245,
                "min": -0.9992097869632751,
                "offset": -128,
                "scale": 0.007806326460650587
            },
            {
                "bitwidth": 8,
                "dtype": "int",
                "is_symmetric": "True",
                "max": 1.0169808864593506,
                "min": -1.0249886099747785,
                "offset": -128,
                "scale": 0.008007723515427957
            },
            {
                "bitwidth": 8,
                "dtype": "int",
                "is_symmetric": "True",
                "max": 1.0288934707641602,
                "min": -1.036994994156004,
                "offset": -128,
                "scale": 0.00810152339184378
            },
            {
                "bitwidth": 8,
                "dtype": "int",
                "is_symmetric": "True",
                "max": 1.0471094846725464,
                "min": -1.055354441244771,
                "offset": -128,
                "scale": 0.008244956572224774
            },
            {
                "bitwidth": 8,
                "dtype": "int",
                "is_symmetric": "True",
                "max": 1.033719778060913,
                "min": -1.0418593038724164,
                "offset": -128,
                "scale": 0.008139525811503253
            },
            {
                "bitwidth": 8,
                "dtype": "int",
                "is_symmetric": "True",
                "max": 0.9595696330070496,
                "min": -0.9671252994086799,
                "offset": -128,
                "scale": 0.007555666401630311
            },
            {
                "bitwidth": 8,
                "dtype": "int",
                "is_symmetric": "True",
                "max": 1.0381708145141602,
                "min": -1.0463453878567914,
                "offset": -128,
                "scale": 0.008174573342631183
            },
            {
                "bitwidth": 8,
                "dtype": "int",
                "is_symmetric": "True",
                "max": 0.9505398273468018,
                "min": -0.9580243929164616,
                "offset": -128,
                "scale": 0.007484565569659856
            },
            {
                "bitwidth": 8,
                "dtype": "int",
                "is_symmetric": "True",
                "max": 1.0329291820526123,
                "min": -1.0410624826986958,
                "offset": -128,
                "scale": 0.008133300646083561
            },
            {
                "bitwidth": 8,
                "dtype": "int",
                "is_symmetric": "True",
                "max": 0.9323437809944153,
                "min": -0.9396850706085446,
                "offset": -128,
                "scale": 0.007341289614129254
            },
            {
                "bitwidth": 8,
                "dtype": "int",
                "is_symmetric": "True",
                "max": 0.9288807511329651,
                "min": -0.9361947727954294,
                "offset": -128,
                "scale": 0.007314021662464292
            },
            {
                "bitwidth": 8,
                "dtype": "int",
                "is_symmetric": "True",
                "max": 0.980560839176178,
                "min": -0.9882817906657542,
                "offset": -128,
                "scale": 0.007720951489576204
            },
            {
                "bitwidth": 8,
                "dtype": "int",
                "is_symmetric": "True",
                "max": 0.9734920859336853,
                "min": -0.9811573779489112,
                "offset": -128,
                "scale": 0.007665292015225869
            },
            {
                "bitwidth": 8,
                "dtype": "int",
                "is_symmetric": "True",
                "max": 1.0334718227386475,
                "min": -1.0416093961460384,
                "offset": -128,
                "scale": 0.008137573407390925
            },
            {
                "bitwidth": 8,
                "dtype": "int",
                "is_symmetric": "True",
                "max": 1.0539768934249878,
                "min": -1.0622759240818775,
                "offset": -128,
                "scale": 0.008299030656889668
            },
            {
                "bitwidth": 8,
                "dtype": "int",
                "is_symmetric": "True",
                "max": 0.9640900492668152,
                "min": -0.9716813094972625,
                "offset": -128,
                "scale": 0.007591260230447363
            },
            {
                "bitwidth": 8,
                "dtype": "int",
                "is_symmetric": "True",
                "max": 0.9884213805198669,
                "min": -0.9962042260357714,
                "offset": -128,
                "scale": 0.007782845515904464
            },
            {
                "bitwidth": 8,
                "dtype": "int",
                "is_symmetric": "True",
                "max": 1.0439404249191284,
                "min": -1.0521604282649484,
                "offset": -128,
                "scale": 0.00822000334581991
            },
            {
                "bitwidth": 8,
                "dtype": "int",
                "is_symmetric": "True",
                "max": 0.9955837130546571,
                "min": -1.003422954889733,
                "offset": -128,
                "scale": 0.00783924183507604
            },
            {
                "bitwidth": 8,
                "dtype": "int",
                "is_symmetric": "True",
                "max": 0.9592634439468384,
                "min": -0.9668166994109867,
                "offset": -128,
                "scale": 0.0075532554641483335
            },
            {
                "bitwidth": 8,
                "dtype": "int",
                "is_symmetric": "True",
                "max": 0.9948280453681946,
                "min": -1.0026613370640072,
                "offset": -128,
                "scale": 0.007833291695812556
            },
            {
                "bitwidth": 8,
                "dtype": "int",
                "is_symmetric": "True",
                "max": 1.0290781259536743,
                "min": -1.0371811033233882,
                "offset": -128,
                "scale": 0.00810297736971397
            },
            {
                "bitwidth": 8,
                "dtype": "int",
                "is_symmetric": "True",
                "max": 1.0348920822143555,
                "min": -1.0430408387672243,
                "offset": -128,
                "scale": 0.00814875655286894
            },
            {
                "bitwidth": 8,
                "dtype": "int",
                "is_symmetric": "True",
                "max": 0.9448805451393127,
                "min": -0.9523205494317483,
                "offset": -128,
                "scale": 0.007440004292435533
            },
            {
                "bitwidth": 8,
                "dtype": "int",
                "is_symmetric": "True",
                "max": 1.0589407682418823,
                "min": -1.0672788845272514,
                "offset": -128,
                "scale": 0.008338116285369152
            },
            {
                "bitwidth": 8,
                "dtype": "int",
                "is_symmetric": "True",
                "max": 0.9793126583099365,
                "min": -0.9870237816037155,
                "offset": -128,
                "scale": 0.007711123293779027
            },
            {
                "bitwidth": 8,
                "dtype": "int",
                "is_symmetric": "True",
                "max": 1.0328413248062134,
                "min": -1.0409739336629553,
                "offset": -128,
                "scale": 0.008132608856741838
            },
            {
                "bitwidth": 8,
                "dtype": "int",
                "is_symmetric": "True",
                "max": 0.9638292789459229,
                "min": -0.9714184858667569,
                "offset": -128,
                "scale": 0.007589206920834039
            },
            {
                "bitwidth": 8,
                "dtype": "int",
                "is_symmetric": "True",
                "max": 0.9614005088806152,
                "min": -0.9689705916277067,
                "offset": -128,
                "scale": 0.007570082747091459
            },
            {
                "bitwidth": 8,
                "dtype": "int",
                "is_symmetric": "True",
                "max": 0.9878018498420715,
                "min": -0.9955798171636626,
                "offset": -128,
                "scale": 0.007777967321591114
            }
        ],
        "dnet1.conv3.blocks.0.conv_reparam.weight": [
            {
                "bitwidth": 8,
                "dtype": "int",
                "is_symmetric": "True",
                "max": 1.0257662534713745,
                "min": -1.0338431531050074,
                "offset": -128,
                "scale": 0.00807689963363287
            },
            {
                "bitwidth": 8,
                "dtype": "int",
                "is_symmetric": "True",
                "max": 1.0136549472808838,
                "min": -1.0216364822988435,
                "offset": -128,
                "scale": 0.007981535017959715
            },
            {
                "bitwidth": 8,
                "dtype": "int",
                "is_symmetric": "True",
                "max": 1.135674238204956,
                "min": -1.1446165550412155,
                "offset": -128,
                "scale": 0.008942316836259496
            },
            {
                "bitwidth": 8,
                "dtype": "int",
                "is_symmetric": "True",
                "max": 1.054949402809143,
                "min": -1.0632560910202387,
                "offset": -128,
                "scale": 0.008306688211095615
            },
            {
                "bitwidth": 8,
                "dtype": "int",
                "is_symmetric": "True",
                "max": 0.9416306018829346,
                "min": -0.9490450160709891,
                "offset": -128,
                "scale": 0.0074144141880546025
            },
            {
                "bitwidth": 8,
                "dtype": "int",
                "is_symmetric": "True",
                "max": 1.0438748598098755,
                "min": -1.0520943468949926,
                "offset": -128,
                "scale": 0.00821948708511713
            },
            {
                "bitwidth": 8,
                "dtype": "int",
                "is_symmetric": "True",
                "max": 1.0048569440841675,
                "min": -1.012769203486405,
                "offset": -128,
                "scale": 0.00791225940223754
            },
            {
                "bitwidth": 8,
                "dtype": "int",
                "is_symmetric": "True",
                "max": 0.9480955004692078,
                "min": -0.9555608193705402,
                "offset": -128,
                "scale": 0.007465318901332345
            },
            {
                "bitwidth": 8,
                "dtype": "int",
                "is_symmetric": "True",
                "max": 0.9624523520469666,
                "min": -0.9700307170237144,
                "offset": -128,
                "scale": 0.007578364976747768
            },
            {
                "bitwidth": 8,
                "dtype": "int",
                "is_symmetric": "True",
                "max": 0.9623194932937622,
                "min": -0.969896812138595,
                "offset": -128,
                "scale": 0.007577318844832774
            },
            {
                "bitwidth": 8,
                "dtype": "int",
                "is_symmetric": "True",
                "max": 1.0068578720092773,
                "min": -1.0147858867495079,
                "offset": -128,
                "scale": 0.00792801474023053
            },
            {
                "bitwidth": 8,
                "dtype": "int",
                "is_symmetric": "True",
                "max": 0.896920382976532,
                "min": -0.9039827481968197,
                "offset": -128,
                "scale": 0.007062365220287654
            },
            {
                "bitwidth": 8,
                "dtype": "int",
                "is_symmetric": "True",
                "max": 1.0061533451080322,
                "min": -1.0140758123923475,
                "offset": -128,
                "scale": 0.007922467284315214
            },
            {
                "bitwidth": 8,
                "dtype": "int",
                "is_symmetric": "True",
                "max": 0.9640361666679382,
                "min": -0.9716270026259535,
                "offset": -128,
                "scale": 0.0075908359580152615
            },
            {
                "bitwidth": 8,
                "dtype": "int",
                "is_symmetric": "True",
                "max": 0.9601356387138367,
                "min": -0.9676957618533157,
                "offset": -128,
                "scale": 0.007560123139479029
            },
            {
                "bitwidth": 8,
                "dtype": "int",
                "is_symmetric": "True",
                "max": 0.9603381752967834,
                "min": -0.9678998932125061,
                "offset": -128,
                "scale": 0.007561717915722704
            },
            {
                "bitwidth": 8,
                "dtype": "int",
                "is_symmetric": "True",
                "max": 0.9825648069381714,
                "min": -0.9903015377014641,
                "offset": -128,
                "scale": 0.007736730763292688
            },
            {
                "bitwidth": 8,
                "dtype": "int",
                "is_symmetric": "True",
                "max": 0.9442703723907471,
                "min": -0.9517055721733514,
                "offset": -128,
                "scale": 0.007435199782604308
            },
            {
                "bitwidth": 8,
                "dtype": "int",
                "is_symmetric": "True",
                "max": 1.0182859897613525,
                "min": -1.0263039896807333,
                "offset": -128,
                "scale": 0.00801799991938073
            },
            {
                "bitwidth": 8,
                "dtype": "int",
                "is_symmetric": "True",
                "max": 1.0275200605392456,
                "min": -1.03561076967735,
                "offset": -128,
                "scale": 0.008090709138104297
            },
            {
                "bitwidth": 8,
                "dtype": "int",
                "is_symmetric": "True",
                "max": 0.9928190708160399,
                "min": -1.0006365438145914,
                "offset": -128,
                "scale": 0.007817472998551496
            },
            {
                "bitwidth": 8,
                "dtype": "int",
                "is_symmetric": "True",
                "max": 0.8911787271499634,
                "min": -0.8981958824818529,
                "offset": -128,
                "scale": 0.007017155331889476
            },
            {
                "bitwidth": 8,
                "dtype": "int",
                "is_symmetric": "True",
                "max": 1.0093963146209717,
                "min": -1.017344317098302,
                "offset": -128,
                "scale": 0.007948002477330485
            },
            {
                "bitwidth": 8,
                "dtype": "int",
                "is_symmetric": "True",
                "max": 0.9863861203193665,
                "min": -0.9941529401644008,
                "offset": -128,
                "scale": 0.007766819845034381
            },
            {
                "bitwidth": 8,
                "dtype": "int",
                "is_symmetric": "True",
                "max": 0.9094356894493103,
                "min": -0.916596600389856,
                "offset": -128,
                "scale": 0.00716091094054575
            },
            {
                "bitwidth": 8,
                "dtype": "int",
                "is_symmetric": "True",
                "max": 0.986851155757904,
                "min": -0.9946216372993049,
                "offset": -128,
                "scale": 0.007770481541400819
            },
            {
                "bitwidth": 8,
                "dtype": "int",
                "is_symmetric": "True",
                "max": 1.023545503616333,
                "min": -1.031604917030635,
                "offset": -128,
                "scale": 0.008059413414301836
            },
            {
                "bitwidth": 8,
                "dtype": "int",
                "is_symmetric": "True",
                "max": 0.9332895278930664,
                "min": -0.9406382643331693,
                "offset": -128,
                "scale": 0.007348736440102885
            },
            {
                "bitwidth": 8,
                "dtype": "int",
                "is_symmetric": "True",
                "max": 0.9191930294036865,
                "min": -0.9264307697926919,
                "offset": -128,
                "scale": 0.0072377403890054055
            },
            {
                "bitwidth": 8,
                "dtype": "int",
                "is_symmetric": "True",
                "max": 0.9352894425392151,
                "min": -0.9426539263387365,
                "offset": -128,
                "scale": 0.007364483799521379
            },
            {
                "bitwidth": 8,
                "dtype": "int",
                "is_symmetric": "True",
                "max": 1.0938228368759155,
                "min": -1.1024356151190329,
                "offset": -128,
                "scale": 0.008612778243117444
            },
            {
                "bitwidth": 8,
                "dtype": "int",
                "is_symmetric": "True",
                "max": 1.1222084760665894,
                "min": -1.131044763279712,
                "offset": -128,
                "scale": 0.00883628721312275
            },
            {
                "bitwidth": 8,
                "dtype": "int",
                "is_symmetric": "True",
                "max": 1.0955127477645874,
                "min": -1.104138832392655,
                "offset": -128,
                "scale": 0.008626084628067618
            },
            {
                "bitwidth": 8,
                "dtype": "int",
                "is_symmetric": "True",
                "max": 0.9890899062156677,
                "min": -0.9968780157134289,
                "offset": -128,
                "scale": 0.0077881094977611635
            },
            {
                "bitwidth": 8,
                "dtype": "int",
                "is_symmetric": "True",
                "max": 1.0062034130096436,
                "min": -1.0141262745294046,
                "offset": -128,
                "scale": 0.007922861519760974
            },
            {
                "bitwidth": 8,
                "dtype": "int",
                "is_symmetric": "True",
                "max": 0.9768052101135254,
                "min": -0.9844965897207185,
                "offset": -128,
                "scale": 0.007691379607193113
            },
            {
                "bitwidth": 8,
                "dtype": "int",
                "is_symmetric": "True",
                "max": 1.0258666276931763,
                "min": -1.0339443176750123,
                "offset": -128,
                "scale": 0.008077689981836033
            },
            {
                "bitwidth": 8,
                "dtype": "int",
                "is_symmetric": "True",
                "max": 0.9464530944824219,
                "min": -0.9539054810531497,
                "offset": -128,
                "scale": 0.007452386570727732
            },
            {
                "bitwidth": 8,
                "dtype": "int",
                "is_symmetric": "True",
                "max": 1.0941869020462036,
                "min": -1.1028025469442053,
                "offset": -128,
                "scale": 0.008615644898001604
            },
            {
                "bitwidth": 8,
                "dtype": "int",
                "is_symmetric": "True",
                "max": 1.0026706457138062,
                "min": -1.0105656901682456,
                "offset": -128,
                "scale": 0.007895044454439419
            },
            {
                "bitwidth": 8,
                "dtype": "int",
                "is_symmetric": "True",
                "max": 0.9386017322540283,
                "min": -0.9459922970749262,
                "offset": -128,
                "scale": 0.007390564820897861
            },
            {
                "bitwidth": 8,
                "dtype": "int",
                "is_symmetric": "True",
                "max": 0.9746915102005005,
                "min": -0.9823662465012918,
                "offset": -128,
                "scale": 0.007674736300791342
            },
            {
                "bitwidth": 8,
                "dtype": "int",
                "is_symmetric": "True",
                "max": 0.9281901121139526,
                "min": -0.935498695673905,
                "offset": -128,
                "scale": 0.007308583559952383
            },
            {
                "bitwidth": 8,
                "dtype": "int",
                "is_symmetric": "True",
                "max": 0.9713456630706787,
                "min": -0.9789940541184793,
                "offset": -128,
                "scale": 0.007648391047800619
            },
            {
                "bitwidth": 8,
                "dtype": "int",
                "is_symmetric": "True",
                "max": 1.0600204467773438,
                "min": -1.068367064468504,
                "offset": -128,
                "scale": 0.008346617691160187
            },
            {
                "bitwidth": 8,
                "dtype": "int",
                "is_symmetric": "True",
                "max": 0.9416345953941345,
                "min": -0.9490490410271593,
                "offset": -128,
                "scale": 0.007414445633024682
            },
            {
                "bitwidth": 8,
                "dtype": "int",
                "is_symmetric": "True",
                "max": 0.9598069190979004,
                "min": -0.9673644538939469,
                "offset": -128,
                "scale": 0.00755753479604646
            },
            {
                "bitwidth": 8,
                "dtype": "int",
                "is_symmetric": "True",
                "max": 1.010378122329712,
                "min": -1.0183338555764025,
                "offset": -128,
                "scale": 0.007955733246690645
            },
            {
                "bitwidth": 8,
                "dtype": "int",
                "is_symmetric": "True",
                "max": 1.0894136428833008,
                "min": -1.0979917030634843,
                "offset": -128,
                "scale": 0.00857806018018347
            },
            {
                "bitwidth": 8,
                "dtype": "int",
                "is_symmetric": "True",
                "max": 0.9397347569465637,
                "min": -0.9471342432217336,
                "offset": -128,
                "scale": 0.0073994862751697935
            },
            {
                "bitwidth": 8,
                "dtype": "int",
                "is_symmetric": "True",
                "max": 0.9669978618621826,
                "min": -0.9746120182547983,
                "offset": -128,
                "scale": 0.007614156392615611
            },
            {
                "bitwidth": 8,
                "dtype": "int",
                "is_symmetric": "True",
                "max": 1.0175189971923828,
                "min": -1.0255309578001968,
                "offset": -128,
                "scale": 0.008011960607814037
            },
            {
                "bitwidth": 8,
                "dtype": "int",
                "is_symmetric": "True",
                "max": 0.979343831539154,
                "min": -0.9870552002914309,
                "offset": -128,
                "scale": 0.007711368752276804
            },
            {
                "bitwidth": 8,
                "dtype": "int",
                "is_symmetric": "True",
                "max": 0.9314114451408386,
                "min": -0.9387453935277743,
                "offset": -128,
                "scale": 0.007333948386935737
            },
            {
                "bitwidth": 8,
                "dtype": "int",
                "is_symmetric": "True",
                "max": 1.0174288749694824,
                "min": -1.025440125953494,
                "offset": -128,
                "scale": 0.008011250984011672
            },
            {
                "bitwidth": 8,
                "dtype": "int",
                "is_symmetric": "True",
                "max": 0.9442862868309021,
                "min": -0.9517216119240588,
                "offset": -128,
                "scale": 0.007435325093156709
            },
            {
                "bitwidth": 8,
                "dtype": "int",
                "is_symmetric": "True",
                "max": 0.9490247964859009,
                "min": -0.9564974326787032,
                "offset": -128,
                "scale": 0.007472636192802369
            },
            {
                "bitwidth": 8,
                "dtype": "int",
                "is_symmetric": "True",
                "max": 0.9596242308616638,
                "min": -0.9671803271676612,
                "offset": -128,
                "scale": 0.007556096305997353
            },
            {
                "bitwidth": 8,
                "dtype": "int",
                "is_symmetric": "True",
                "max": 1.11928129196167,
                "min": -1.1280945304810532,
                "offset": -128,
                "scale": 0.008813238519383228
            },
            {
                "bitwidth": 8,
                "dtype": "int",
                "is_symmetric": "True",
                "max": 1.0159223079681396,
                "min": -1.0239216962198572,
                "offset": -128,
                "scale": 0.007999388251717634
            },
            {
                "bitwidth": 8,
                "dtype": "int",
                "is_symmetric": "True",
                "max": 0.8899024128913879,
                "min": -0.8969095185047059,
                "offset": -128,
                "scale": 0.007007105613318015
            },
            {
                "bitwidth": 8,
                "dtype": "int",
                "is_symmetric": "True",
                "max": 1.045279860496521,
                "min": -1.0535104105791708,
                "offset": -128,
                "scale": 0.008230550082649772
            },
            {
                "bitwidth": 8,
                "dtype": "int",
                "is_symmetric": "True",
                "max": 1.0167827606201172,
                "min": -1.024788924089567,
                "offset": -128,
                "scale": 0.008006163469449741
            },
            {
                "bitwidth": 8,
                "dtype": "int",
                "is_symmetric": "True",
                "max": 0.9438571333885193,
                "min": -0.9512890793207124,
                "offset": -128,
                "scale": 0.0074319459321930655
            },
            {
                "bitwidth": 8,
                "dtype": "int",
                "is_symmetric": "True",
                "max": 1.0815411806106567,
                "min": -1.0900572528989296,
                "offset": -128,
                "scale": 0.008516072288272888
            },
            {
                "bitwidth": 8,
                "dtype": "int",
                "is_symmetric": "True",
                "max": 0.9881751537322998,
                "min": -0.9959560604546014,
                "offset": -128,
                "scale": 0.007780906722301573
            },
            {
                "bitwidth": 8,
                "dtype": "int",
                "is_symmetric": "True",
                "max": 0.9505835771560669,
                "min": -0.9580684872124139,
                "offset": -128,
                "scale": 0.0074849100563469835
            },
            {
                "bitwidth": 8,
                "dtype": "int",
                "is_symmetric": "True",
                "max": 1.0007654428482056,
                "min": -1.008645485705278,
                "offset": -128,
                "scale": 0.007880042857072484
            },
            {
                "bitwidth": 8,
                "dtype": "int",
                "is_symmetric": "True",
                "max": 0.9458526372909546,
                "min": -0.9533002958523007,
                "offset": -128,
                "scale": 0.007447658561346099
            },
            {
                "bitwidth": 8,
                "dtype": "int",
                "is_symmetric": "True",
                "max": 0.9660739302635193,
                "min": -0.973680811604177,
                "offset": -128,
                "scale": 0.0076068813406576325
            },
            {
                "bitwidth": 8,
                "dtype": "int",
                "is_symmetric": "True",
                "max": 1.039322853088379,
                "min": -1.0475064976008859,
                "offset": -128,
                "scale": 0.008183644512506921
            },
            {
                "bitwidth": 8,
                "dtype": "int",
                "is_symmetric": "True",
                "max": 1.0360220670700073,
                "min": -1.0441797211414248,
                "offset": -128,
                "scale": 0.008157654071417381
            },
            {
                "bitwidth": 8,
                "dtype": "int",
                "is_symmetric": "True",
                "max": 0.8620567321777344,
                "min": -0.8688445804625984,
                "offset": -128,
                "scale": 0.00678784828486405
            },
            {
                "bitwidth": 8,
                "dtype": "int",
                "is_symmetric": "True",
                "max": 0.9850520491600037,
                "min": -0.9928083645077203,
                "offset": -128,
                "scale": 0.0077563153477165645
            },
            {
                "bitwidth": 8,
                "dtype": "int",
                "is_symmetric": "True",
                "max": 0.9492871761322021,
                "min": -0.9567618783064714,
                "offset": -128,
                "scale": 0.007474702174269308
            },
            {
                "bitwidth": 8,
                "dtype": "int",
                "is_symmetric": "True",
                "max": 1.0340912342071533,
                "min": -1.0422336848702018,
                "offset": -128,
                "scale": 0.008142450663048452
            },
            {
                "bitwidth": 8,
                "dtype": "int",
                "is_symmetric": "True",
                "max": 0.9949941635131836,
                "min": -1.0028287632258859,
                "offset": -128,
                "scale": 0.007834599712702233
            },
            {
                "bitwidth": 8,
                "dtype": "int",
                "is_symmetric": "True",
                "max": 0.9265075325965881,
                "min": -0.9338028674989235,
                "offset": -128,
                "scale": 0.00729533490233534
            },
            {
                "bitwidth": 8,
                "dtype": "int",
                "is_symmetric": "True",
                "max": 1.0665550231933594,
                "min": -1.074953094242126,
                "offset": -128,
                "scale": 0.008398071048766609
            },
            {
                "bitwidth": 8,
                "dtype": "int",
                "is_symmetric": "True",
                "max": 1.0612021684646606,
                "min": -1.0695580910509965,
                "offset": -128,
                "scale": 0.00835592258633591
            },
            {
                "bitwidth": 8,
                "dtype": "int",
                "is_symmetric": "True",
                "max": 1.0125633478164673,
                "min": -1.0205362875630537,
                "offset": -128,
                "scale": 0.007972939746586357
            },
            {
                "bitwidth": 8,
                "dtype": "int",
                "is_symmetric": "True",
                "max": 0.9375723600387573,
                "min": -0.9449548195666215,
                "offset": -128,
                "scale": 0.007382459527864231
            },
            {
                "bitwidth": 8,
                "dtype": "int",
                "is_symmetric": "True",
                "max": 0.9023967981338501,
                "min": -0.9095022847333293,
                "offset": -128,
                "scale": 0.007105486599479135
            },
            {
                "bitwidth": 8,
                "dtype": "int",
                "is_symmetric": "True",
                "max": 0.9837849140167236,
                "min": -0.9915312519223671,
                "offset": -128,
                "scale": 0.007746337905643493
            },
            {
                "bitwidth": 8,
                "dtype": "int",
                "is_symmetric": "True",
                "max": 0.8853851556777954,
                "min": -0.8923566923366757,
                "offset": -128,
                "scale": 0.006971536658880279
            },
            {
                "bitwidth": 8,
                "dtype": "int",
                "is_symmetric": "True",
                "max": 0.9658638834953308,
                "min": -0.9734691109244279,
                "offset": -128,
                "scale": 0.007605227429097093
            },
            {
                "bitwidth": 8,
                "dtype": "int",
                "is_symmetric": "True",
                "max": 0.9696435928344727,
                "min": -0.9772785817544292,
                "offset": -128,
                "scale": 0.007634988919956478
            },
            {
                "bitwidth": 8,
                "dtype": "int",
                "is_symmetric": "True",
                "max": 1.0264332294464111,
                "min": -1.034515380859375,
                "offset": -128,
                "scale": 0.008082151412963867
            },
            {
                "bitwidth": 8,
                "dtype": "int",
                "is_symmetric": "True",
                "max": 0.9511913061141968,
                "min": -0.9586810014379306,
                "offset": -128,
                "scale": 0.0074896953237338325
            },
            {
                "bitwidth": 8,
                "dtype": "int",
                "is_symmetric": "True",
                "max": 1.0757590532302856,
                "min": -1.0842295969565083,
                "offset": -128,
                "scale": 0.008470543726222721
            },
            {
                "bitwidth": 8,
                "dtype": "int",
                "is_symmetric": "True",
                "max": 1.0479339361190796,
                "min": -1.0561853844349778,
                "offset": -128,
                "scale": 0.008251448315898264
            },
            {
                "bitwidth": 8,
                "dtype": "int",
                "is_symmetric": "True",
                "max": 0.9717525839805603,
                "min": -0.9794041791300135,
                "offset": -128,
                "scale": 0.007651595149453231
            },
            {
                "bitwidth": 8,
                "dtype": "int",
                "is_symmetric": "True",
                "max": 0.9581424593925476,
                "min": -0.9656868882066622,
                "offset": -128,
                "scale": 0.007544428814114548
            },
            {
                "bitwidth": 8,
                "dtype": "int",
                "is_symmetric": "True",
                "max": 1.0301028490066528,
