{
    "activation_encodings": {
        "101": [
            {
                "bitwidth": 8,
                "dtype": "int",
                "is_symmetric": "False",
                "max": 0.5164071368236167,
                "min": -0.17666559943965837,
                "offset": -65,
                "scale": 0.0027179322990716673
            }
        ],
        "104": [
            {
                "bitwidth": 8,
                "dtype": "int",
                "is_symmetric": "False",
                "max": 0.5172244412422764,
                "min": -0.016752208623231627,
                "offset": -8,
                "scale": 0.0020940260779039534
            }
        ],
        "107": [
            {
                "bitwidth": 8,
                "dtype": "int",
                "is_symmetric": "False",
                "max": 0.5881594176385917,
                "min": -0.11929648565311059,
                "offset": -43,
                "scale": 0.0027743368756537345
            }
        ],
        "110": [
            {
                "bitwidth": 8,
                "dtype": "int",
                "is_symmetric": "False",
                "max": 0.5885615095715312,
                "min": -0.011771230191430625,
                "offset": -5,
                "scale": 0.002354246038286125
            }
        ],
        "113": [
            {
                "bitwidth": 8,
                "dtype": "int",
                "is_symmetric": "False",
                "max": 0.6070115567422381,
                "min": -0.19086445856328105,
                "offset": -61,
                "scale": 0.003128925550217722
            }
        ],
        "116": [
            {
                "bitwidth": 8,
                "dtype": "int",
                "is_symmetric": "False",
                "max": 0.6058836721687341,
                "min": -0.019623762661335514,
                "offset": -8,
                "scale": 0.002452970332666939
            }
        ],
        "119": [
            {
                "bitwidth": 8,
                "dtype": "int",
                "is_symmetric": "False",
                "max": 0.1706140116149304,
                "min": -0.15406190601049685,
                "offset": -121,
                "scale": 0.0012732388926487343
            }
        ],
        "123": [
            {
                "bitwidth": 8,
                "dtype": "int",
                "is_symmetric": "False",
                "max": 1.0732289061826819,
                "min": -0.159534026594723,
                "offset": -33,
                "scale": 0.004834364442264333
            }
        ],
        "126": [
            {
                "bitwidth": 8,
                "dtype": "int",
                "is_symmetric": "False",
                "max": 0.9983586376788569,
                "min": -0.31391689122891897,
                "offset": -61,
                "scale": 0.005146178544736376
            }
        ],
        "129": [
            {
                "bitwidth": 8,
                "dtype": "int",
                "is_symmetric": "False",
                "max": 0.9991880182322919,
                "min": -0.03236236496298921,
                "offset": -8,
                "scale": 0.004045295620373651
            }
        ],
        "132": [
            {
                "bitwidth": 8,
                "dtype": "int",
                "is_symmetric": "False",
                "max": 1.0728798251526028,
                "min": -0.2616780061347812,
                "offset": -50,
                "scale": 0.005233560122695624
            }
        ],
        "135": [
            {
                "bitwidth": 8,
                "dtype": "int",
                "is_symmetric": "False",
                "max": 1.0744098289267106,
                "min": -0.025889393468113503,
                "offset": -6,
                "scale": 0.004314898911352251
            }
        ],
        "138": [
            {
                "bitwidth": 8,
                "dtype": "int",
                "is_symmetric": "False",
                "max": 0.2760053110473296,
                "min": -0.245338054264293,
                "offset": -120,
                "scale": 0.002044483785535775
            }
        ],
        "142": [
            {
                "bitwidth": 8,
                "dtype": "int",
                "is_symmetric": "False",
                "max": 1.4222648784226062,
                "min": -0.249060209124696,
                "offset": -38,
                "scale": 0.006554216029597264
            }
        ],
        "145": [
            {
                "bitwidth": 8,
                "dtype": "int",
                "is_symmetric": "False",
                "max": 1.479580313317916,
                "min": -0.5166788395713358,
                "offset": -66,
                "scale": 0.00782846726623236
            }
        ],
        "148": [
            {
                "bitwidth": 8,
                "dtype": "int",
                "is_symmetric": "False",
                "max": 1.4782981308944085,
                "min": -0.05408407795955153,
                "offset": -9,
                "scale": 0.006009341995505725
            }
        ],
        "151": [
            {
                "bitwidth": 8,
                "dtype": "int",
                "is_symmetric": "False",
                "max": 1.5419130166371664,
                "min": -0.4641472856203715,
                "offset": -59,
                "scale": 0.007866903146107992
            }
        ],
        "154": [
            {
                "bitwidth": 8,
                "dtype": "int",
                "is_symmetric": "False",
                "max": 1.544710850949381,
                "min": -0.043600709502603495,
                "offset": -7,
                "scale": 0.006228672786086214
            }
        ],
        "157": [
            {
                "bitwidth": 8,
                "dtype": "int",
                "is_symmetric": "False",
                "max": 0.4694766261998345,
                "min": -0.48065464110935435,
                "offset": -129,
                "scale": 0.0037260049698399564
            }
        ],
        "161": [
            {
                "bitwidth": 8,
                "dtype": "int",
                "is_symmetric": "False",
                "max": 1.9750119826372932,
                "min": -0.4462767460766961,
                "offset": -47,
                "scale": 0.009495249916525448
            }
        ],
        "164": [
            {
                "bitwidth": 8,
                "dtype": "int",
                "is_symmetric": "False",
                "max": 1.9272202667068032,
                "min": -0.7879243079353782,
                "offset": -74,
                "scale": 0.010647625782910515
            }
        ],
        "167": [
            {
                "bitwidth": 8,
                "dtype": "int",
                "is_symmetric": "False",
                "max": 1.930580281159457,
                "min": -0.07879919514936559,
                "offset": -10,
                "scale": 0.00787991951493656
            }
        ],
        "170": [
            {
                "bitwidth": 8,
                "dtype": "int",
                "is_symmetric": "False",
                "max": 2.2217649244794657,
                "min": -0.7600774741640278,
                "offset": -65,
                "scale": 0.011693499602523505
            }
        ],
        "173": [
            {
                "bitwidth": 8,
                "dtype": "int",
                "is_symmetric": "False",
                "max": 2.2276164607382287,
                "min": -0.07214952099557016,
                "offset": -8,
                "scale": 0.00901869012444627
            }
        ],
        "177": [
            {
                "bitwidth": 8,
                "dtype": "int",
                "is_symmetric": "False",
                "max": 3.524728901246015,
                "min": -1.9225794006796444,
                "offset": -90,
                "scale": 0.021361993340884938
            }
        ],
        "180": [
            {
                "bitwidth": 8,
                "dtype": "int",
                "is_symmetric": "False",
                "max": 1.133517396216299,
                "min": -1.1246617915583592,
                "offset": -127,
                "scale": 0.008855604657939836
            }
        ],
        "184": [
            {
                "bitwidth": 16,
                "dtype": "int",
                "is_symmetric": "False",
                "max": 0.6774042131262858,
                "min": -0.6978648422402303,
                "offset": -33255,
                "scale": 2.0985260629686673e-05
            }
        ],
        "47": [
            {
                "bitwidth": 8,
                "dtype": "int",
                "is_symmetric": "False",
                "max": 1.7916381045883778,
                "min": -1.9841281488829967,
                "offset": -134,
                "scale": 0.014806926484201469
            }
        ],
        "50": [
            {
                "bitwidth": 8,
                "dtype": "int",
                "is_symmetric": "False",
                "max": 1.820412224414302,
                "min": -2.3996342958188523,
                "offset": -145,
                "scale": 0.016549202040130016
            }
        ],
        "53": [
            {
                "bitwidth": 8,
                "dtype": "int",
                "is_symmetric": "False",
                "max": 1.8175363803611082,
                "min": -0.24233818404814778,
                "offset": -30,
                "scale": 0.008077939468271593
            }
        ],
        "56": [
            {
                "bitwidth": 8,
                "dtype": "int",
                "is_symmetric": "False",
                "max": 1.9081950091848188,
                "min": -0.8101833558550068,
                "offset": -76,
                "scale": 0.010660307313881668
            }
        ],
        "59": [
            {
                "bitwidth": 8,
                "dtype": "int",
                "is_symmetric": "False",
                "max": 1.9115258776674084,
                "min": -0.0780214643945881,
                "offset": -10,
                "scale": 0.00780214643945881
            }
        ],
        "62": [
            {
                "bitwidth": 8,
                "dtype": "int",
                "is_symmetric": "False",
                "max": 1.221787179217619,
                "min": -0.9878279321333941,
                "offset": -114,
                "scale": 0.008665157299415738
            }
        ],
        "65": [
            {
                "bitwidth": 8,
                "dtype": "int",
                "is_symmetric": "False",
                "max": 1.329016404058419,
                "min": -1.057597560976066,
                "offset": -113,
                "scale": 0.009359270451115627
            }
        ],
        "68": [
            {
                "bitwidth": 8,
                "dtype": "int",
                "is_symmetric": "False",
                "max": 1.3243595645708197,
                "min": -0.10662216833409141,
                "offset": -19,
                "scale": 0.005611693070215337
            }
        ],
        "71": [
            {
                "bitwidth": 8,
                "dtype": "int",
                "is_symmetric": "False",
                "max": 1.3697885166196262,
                "min": -0.31763211979585537,
                "offset": -48,
                "scale": 0.00661733582908032
            }
        ],
        "74": [
            {
                "bitwidth": 8,
                "dtype": "int",
                "is_symmetric": "False",
                "max": 1.3675740787211585,
                "min": -0.03295359225834117,
                "offset": -6,
                "scale": 0.005492265376390196
            }
        ],
        "77": [
            {
                "bitwidth": 8,
                "dtype": "int",
                "is_symmetric": "False",
                "max": 0.7139630156404831,
                "min": -0.6758123201482437,
                "offset": -124,
                "scale": 0.005450099356034223
            }
        ],
        "80": [
            {
                "bitwidth": 8,
                "dtype": "int",
                "is_symmetric": "False",
                "max": 0.9816878599279066,
                "min": -0.7567177253610948,
                "offset": -111,
                "scale": 0.006817276805054908
            }
        ],
        "83": [
            {
                "bitwidth": 8,
                "dtype": "int",
                "is_symmetric": "False",
                "max": 0.9800106161657501,
                "min": -0.07443118603790508,
                "offset": -18,
                "scale": 0.004135065890994726
            }
        ],
        "86": [
            {
                "bitwidth": 8,
                "dtype": "int",
                "is_symmetric": "False",
                "max": 1.0589844504407808,
                "min": -0.22083088066063675,
                "offset": -44,
                "scale": 0.005018883651378108
            }
        ],
        "89": [
            {
                "bitwidth": 8,
                "dtype": "int",
                "is_symmetric": "False",
                "max": 1.0581465346702175,
                "min": -0.021162930693404348,
                "offset": -5,
                "scale": 0.00423258613868087
            }
        ],
        "92": [
            {
                "bitwidth": 8,
                "dtype": "int",
                "is_symmetric": "False",
                "max": 0.5377087752024333,
                "min": -0.47049517830212906,
                "offset": -119,
                "scale": 0.0039537409941355385
            }
        ],
        "95": [
            {
                "bitwidth": 8,
                "dtype": "int",
                "is_symmetric": "False",
                "max": 0.5585867563883464,
                "min": -0.48111852010091144,
                "offset": -118,
                "scale": 0.0040772755940755205
            }
        ],
        "98": [
            {
                "bitwidth": 8,
                "dtype": "int",
                "is_symmetric": "False",
                "max": 0.5579029737296057,
                "min": -0.04748110414720049,
                "offset": -20,
                "scale": 0.0023740552073600245
            }
        ],
        "t.1": [
            {
                "bitwidth": 16,
                "dtype": "int",
                "is_symmetric": "False",
                "max": 0.9999999403953552,
                "min": 0.0,
                "offset": 0,
                "scale": 1.5259020987187842e-05
            }
        ]
    },
    "excluded_layers": [],
    "param_encodings": {
        "dnet1.conv1.blocks.0.conv_reparam.weight": [
            {
                "bitwidth": 8,
                "dtype": "int",
                "is_symmetric": "True",
                "max": 1.0642873048782349,
                "min": -1.0726675198772762,
                "offset": -128,
                "scale": 0.00838021499904122
            },
            {
                "bitwidth": 8,
                "dtype": "int",
                "is_symmetric": "True",
                "max": 1.0141977071762085,
                "min": -1.0221835158941315,
                "offset": -128,
                "scale": 0.007985808717922902
            },
            {
                "bitwidth": 8,
                "dtype": "int",
                "is_symmetric": "True",
                "max": 1.002187728881836,
                "min": -1.0100789708415354,
                "offset": -128,
                "scale": 0.007891241959699495
            },
            {
                "bitwidth": 8,
                "dtype": "int",
                "is_symmetric": "True",
                "max": 1.0092546939849854,
                "min": -1.017201581339198,
                "offset": -128,
                "scale": 0.007946887354212484
            },
            {
                "bitwidth": 8,
                "dtype": "int",
                "is_symmetric": "True",
                "max": 1.1333013772964478,
                "min": -1.1422250101885458,
                "offset": -128,
                "scale": 0.008923632892098014
            },
            {
                "bitwidth": 8,
                "dtype": "int",
                "is_symmetric": "True",
                "max": 1.066645860671997,
                "min": -1.075044646976501,
                "offset": -128,
                "scale": 0.008398786304503914
            },
            {
                "bitwidth": 8,
                "dtype": "int",
                "is_symmetric": "True",
                "max": 1.020248293876648,
                "min": -1.028281745009535,
                "offset": -128,
                "scale": 0.008033451132886992
            },
            {
                "bitwidth": 8,
                "dtype": "int",
                "is_symmetric": "True",
                "max": 1.0552265644073486,
                "min": -1.0635354349932333,
                "offset": -128,
                "scale": 0.008308870585884635
            },
            {
                "bitwidth": 8,
                "dtype": "int",
                "is_symmetric": "True",
                "max": 0.9930194020271301,
                "min": -1.0008384524367926,
                "offset": -128,
                "scale": 0.007819050409662442
            },
            {
                "bitwidth": 8,
                "dtype": "int",
                "is_symmetric": "True",
                "max": 0.9739403128623962,
                "min": -0.9816091342235175,
                "offset": -128,
                "scale": 0.00766882136112123
            },
            {
                "bitwidth": 8,
                "dtype": "int",
                "is_symmetric": "True",
                "max": 1.0071752071380615,
                "min": -1.0151057205800935,
                "offset": -128,
                "scale": 0.00793051344203198
            },
            {
                "bitwidth": 8,
                "dtype": "int",
                "is_symmetric": "True",
                "max": 1.0015239715576172,
                "min": -1.0094099870816928,
                "offset": -128,
                "scale": 0.007886015524075725
            },
            {
                "bitwidth": 8,
                "dtype": "int",
                "is_symmetric": "True",
                "max": 1.0104421377182007,
                "min": -1.0183983750230685,
                "offset": -128,
                "scale": 0.007956237304867723
            },
            {
                "bitwidth": 8,
                "dtype": "int",
                "is_symmetric": "True",
                "max": 1.0422838926315308,
                "min": -1.050490852416031,
                "offset": -128,
                "scale": 0.008206959784500242
            },
            {
                "bitwidth": 8,
                "dtype": "int",
                "is_symmetric": "True",
                "max": 1.0477324724197388,
                "min": -1.0559823344072958,
                "offset": -128,
                "scale": 0.008249861987556999
            },
            {
                "bitwidth": 8,
                "dtype": "int",
                "is_symmetric": "True",
                "max": 0.8988043069839478,
                "min": -0.9058815062515378,
                "offset": -128,
                "scale": 0.0070771992675901394
            },
            {
                "bitwidth": 8,
                "dtype": "int",
                "is_symmetric": "True",
                "max": 0.9877914190292358,
                "min": -0.9955693042184425,
                "offset": -128,
                "scale": 0.007777885189206582
            },
            {
                "bitwidth": 8,
                "dtype": "int",
                "is_symmetric": "True",
                "max": 0.913296103477478,
                "min": -0.9204874113788755,
                "offset": -128,
                "scale": 0.0071913079013974646
            },
            {
                "bitwidth": 8,
                "dtype": "int",
                "is_symmetric": "True",
                "max": 0.8696438074111938,
                "min": -0.8764913964459277,
                "offset": -128,
                "scale": 0.00684758903473381
            },
            {
                "bitwidth": 8,
                "dtype": "int",
                "is_symmetric": "True",
                "max": 0.9955914616584779,
                "min": -1.0034307645061824,
                "offset": -128,
                "scale": 0.00783930284770455
            },
            {
                "bitwidth": 8,
                "dtype": "int",
                "is_symmetric": "True",
                "max": 1.0241544246673584,
                "min": -1.0322186327356053,
                "offset": -128,
                "scale": 0.008064208068246917
            },
            {
                "bitwidth": 8,
                "dtype": "int",
                "is_symmetric": "True",
                "max": 0.9679964780807495,
                "min": -0.9756184975931964,
                "offset": -128,
                "scale": 0.007622019512446847
            },
            {
                "bitwidth": 8,
                "dtype": "int",
                "is_symmetric": "True",
                "max": 0.9793253540992737,
                "min": -0.9870365773598979,
                "offset": -128,
                "scale": 0.0077112232606242025
            },
            {
                "bitwidth": 8,
                "dtype": "int",
                "is_symmetric": "True",
                "max": 0.997202157974243,
                "min": -1.0050541434701032,
                "offset": -128,
                "scale": 0.007851985495860182
            },
            {
                "bitwidth": 8,
                "dtype": "int",
                "is_symmetric": "True",
                "max": 0.9420031905174255,
                "min": -0.9494205384742557,
                "offset": -128,
                "scale": 0.007417347956830122
            },
            {
                "bitwidth": 8,
                "dtype": "int",
                "is_symmetric": "True",
                "max": 1.0158175230026245,
                "min": -1.0238160861758736,
                "offset": -128,
                "scale": 0.007998563173249013
            },
            {
                "bitwidth": 8,
                "dtype": "int",
                "is_symmetric": "True",
                "max": 1.0128074884414673,
                "min": -1.0207823505551796,
                "offset": -128,
                "scale": 0.00797486211371234
            },
            {
                "bitwidth": 8,
                "dtype": "int",
                "is_symmetric": "True",
                "max": 0.9234319925308228,
                "min": -0.9307031105822465,
                "offset": -128,
                "scale": 0.007271118051423801
            },
            {
                "bitwidth": 8,
                "dtype": "int",
                "is_symmetric": "True",
                "max": 0.9907862544059753,
                "min": -0.9985877209761012,
                "offset": -128,
                "scale": 0.00780146657012579
            },
            {
                "bitwidth": 8,
                "dtype": "int",
                "is_symmetric": "True",
                "max": 0.9946814775466918,
                "min": -1.0025136151651697,
                "offset": -128,
                "scale": 0.007832137618477888
            },
            {
                "bitwidth": 8,
                "dtype": "int",
                "is_symmetric": "True",
                "max": 1.0298559665679932,
                "min": -1.0379650686669537,
                "offset": -128,
                "scale": 0.008109102098960576
            },
            {
                "bitwidth": 8,
                "dtype": "int",
                "is_symmetric": "True",
                "max": 1.0394160747528076,
                "min": -1.0476004532941683,
                "offset": -128,
                "scale": 0.00818437854136069
            }
        ],
        "dnet1.conv1.blocks.2.rbr_reparam.weight": [
            {
                "bitwidth": 8,
                "dtype": "int",
                "is_symmetric": "True",
                "max": 0.8574258089065552,
                "min": -0.864177193228654,
                "offset": -128,
                "scale": 0.00675138432209886
            },
            {
                "bitwidth": 8,
                "dtype": "int",
                "is_symmetric": "True",
                "max": 0.9067205786705017,
                "min": -0.9138601107860175,
                "offset": -128,
                "scale": 0.0071395321155157615
            },
            {
                "bitwidth": 8,
                "dtype": "int",
                "is_symmetric": "True",
                "max": 1.055446743965149,
                "min": -1.0637573482483391,
                "offset": -128,
                "scale": 0.00831060428319015
            },
            {
                "bitwidth": 8,
                "dtype": "int",
                "is_symmetric": "True",
                "max": 0.9479621648788452,
                "min": -0.9554264338936392,
                "offset": -128,
                "scale": 0.0074642690147940565
            },
            {
                "bitwidth": 8,
                "dtype": "int",
                "is_symmetric": "True",
                "max": 0.8294951319694519,
                "min": -0.8360265897014948,
                "offset": -128,
                "scale": 0.006531457732042928
            },
            {
                "bitwidth": 8,
                "dtype": "int",
                "is_symmetric": "True",
                "max": 1.049451231956482,
                "min": -1.0577146274836984,
                "offset": -128,
                "scale": 0.008263395527216394
            },
            {
                "bitwidth": 8,
                "dtype": "int",
                "is_symmetric": "True",
                "max": 1.0611531734466553,
                "min": -1.069508710245448,
                "offset": -128,
                "scale": 0.008355536798792562
            },
            {
                "bitwidth": 8,
                "dtype": "int",
                "is_symmetric": "True",
                "max": 0.920941174030304,
                "min": -0.9281926793376292,
                "offset": -128,
                "scale": 0.007251505307325228
            },
            {
                "bitwidth": 8,
                "dtype": "int",
                "is_symmetric": "True",
                "max": 1.0362348556518555,
                "min": -1.0443941852239174,
                "offset": -128,
                "scale": 0.008159329572061854
            },
            {
                "bitwidth": 8,
                "dtype": "int",
                "is_symmetric": "True",
                "max": 1.0867161750793457,
                "min": -1.095272995355561,
                "offset": -128,
                "scale": 0.008556820276215321
            },
            {
                "bitwidth": 8,
                "dtype": "int",
                "is_symmetric": "True",
                "max": 0.9401381611824036,
                "min": -0.9475408238688792,
                "offset": -128,
                "scale": 0.0074026626864756185
            },
            {
                "bitwidth": 8,
                "dtype": "int",
                "is_symmetric": "True",
                "max": 0.9848901033401489,
                "min": -0.9926451435239296,
                "offset": -128,
                "scale": 0.0077550401837807
            },
            {
                "bitwidth": 8,
                "dtype": "int",
                "is_symmetric": "True",
                "max": 1.022847056388855,
                "min": -1.0309009702186884,
                "offset": -128,
                "scale": 0.008053913829833503
            },
            {
                "bitwidth": 8,
                "dtype": "int",
                "is_symmetric": "True",
                "max": 1.118404746055603,
                "min": -1.127211082638718,
                "offset": -128,
                "scale": 0.008806336583114985
            },
            {
                "bitwidth": 8,
                "dtype": "int",
                "is_symmetric": "True",
                "max": 1.012701153755188,
                "min": -1.020675178587906,
                "offset": -128,
                "scale": 0.007974024832718016
            },
            {
                "bitwidth": 8,
                "dtype": "int",
                "is_symmetric": "True",
                "max": 1.124712586402893,
                "min": -1.1335685910202387,
                "offset": -128,
                "scale": 0.008856004617345615
            },
            {
                "bitwidth": 8,
                "dtype": "int",
                "is_symmetric": "True",
                "max": 0.8241322040557861,
                "min": -0.8306214340089813,
                "offset": -128,
                "scale": 0.006489229953195166
            },
            {
                "bitwidth": 8,
                "dtype": "int",
                "is_symmetric": "True",
                "max": 1.1017719507217407,
                "min": -1.1104473204124632,
                "offset": -128,
                "scale": 0.008675369690722369
            },
            {
                "bitwidth": 8,
                "dtype": "int",
                "is_symmetric": "True",
                "max": 0.9577117562294006,
                "min": -0.9652527936800258,
                "offset": -128,
                "scale": 0.007541037450625202
            },
            {
                "bitwidth": 8,
                "dtype": "int",
                "is_symmetric": "True",
                "max": 1.1041260957717896,
                "min": -1.1128200020377093,
                "offset": -128,
                "scale": 0.008693906265919604
            },
            {
                "bitwidth": 8,
                "dtype": "int",
                "is_symmetric": "True",
                "max": 0.9263662099838257,
                "min": -0.9336604321096825,
                "offset": -128,
                "scale": 0.007294222125856895
            },
            {
                "bitwidth": 8,
                "dtype": "int",
                "is_symmetric": "True",
                "max": 0.9337926506996155,
                "min": -0.9411453487366204,
                "offset": -128,
                "scale": 0.007352698037004847
            },
            {
                "bitwidth": 8,
                "dtype": "int",
                "is_symmetric": "True",
                "max": 0.8652878999710083,
                "min": -0.8721011905219611,
                "offset": -128,
                "scale": 0.006813290550952821
            },
            {
                "bitwidth": 8,
                "dtype": "int",
                "is_symmetric": "True",
                "max": 1.017783284187317,
                "min": -1.025797325795091,
                "offset": -128,
                "scale": 0.008014041607774148
            },
            {
                "bitwidth": 8,
                "dtype": "int",
                "is_symmetric": "True",
                "max": 0.916400671005249,
                "min": -0.923616424320251,
                "offset": -128,
                "scale": 0.007215753315001961
            },
            {
                "bitwidth": 8,
                "dtype": "int",
                "is_symmetric": "True",
                "max": 1.1282809972763062,
                "min": -1.1371650996170646,
                "offset": -128,
                "scale": 0.008884102340758317
            },
            {
                "bitwidth": 8,
                "dtype": "int",
                "is_symmetric": "True",
                "max": 1.1516170501708984,
                "min": -1.1606849009596456,
                "offset": -128,
                "scale": 0.009067850788747231
            },
            {
                "bitwidth": 8,
                "dtype": "int",
                "is_symmetric": "True",
                "max": 1.0632052421569824,
                "min": -1.0715769369771162,
                "offset": -128,
                "scale": 0.00837169482013372
            },
            {
                "bitwidth": 8,
                "dtype": "int",
                "is_symmetric": "True",
                "max": 0.9569900631904602,
                "min": -0.9645254180187316,
                "offset": -128,
                "scale": 0.007535354828271341
            },
            {
                "bitwidth": 8,
                "dtype": "int",
                "is_symmetric": "True",
                "max": 1.1523563861846924,
                "min": -1.1614300585168553,
                "offset": -128,
                "scale": 0.009073672332162932
            },
            {
                "bitwidth": 8,
                "dtype": "int",
                "is_symmetric": "True",
                "max": 1.1245332956314087,
                "min": -1.133387888510396,
                "offset": -128,
                "scale": 0.00885459287898747
            },
            {
                "bitwidth": 8,
                "dtype": "int",
                "is_symmetric": "True",
                "max": 0.8266980648040771,
                "min": -0.8332074983852116,
                "offset": -128,
                "scale": 0.0065094335811344654
            }
        ],
        "dnet1.conv2.blocks.0.conv_reparam.weight": [
            {
                "bitwidth": 8,
                "dtype": "int",
                "is_symmetric": "True",
                "max": 0.8857285976409912,
                "min": -0.8927028385672983,
                "offset": -128,
                "scale": 0.006974240926307018
            },
            {
                "bitwidth": 8,
                "dtype": "int",
                "is_symmetric": "True",
                "max": 1.017012357711792,
                "min": -1.0250203290323572,
                "offset": -128,
                "scale": 0.00800797132056529
            },
            {
                "bitwidth": 8,
                "dtype": "int",
                "is_symmetric": "True",
                "max": 0.8506519198417664,
                "min": -0.8573499664546936,
                "offset": -128,
                "scale": 0.006698046612927294
            },
            {
                "bitwidth": 8,
                "dtype": "int",
                "is_symmetric": "True",
                "max": 1.0073790550231934,
                "min": -1.015311173566683,
                "offset": -128,
                "scale": 0.007932118543489712
            },
            {
                "bitwidth": 8,
                "dtype": "int",
                "is_symmetric": "True",
                "max": 1.0284329652786255,
                "min": -1.036530862643024,
                "offset": -128,
                "scale": 0.008097897364398626
            },
            {
                "bitwidth": 8,
                "dtype": "int",
                "is_symmetric": "True",
                "max": 0.8619886636734009,
                "min": -0.8687759759857898,
                "offset": -128,
                "scale": 0.006787312312388983
            },
            {
                "bitwidth": 8,
                "dtype": "int",
                "is_symmetric": "True",
                "max": 0.9538101553916931,
                "min": -0.9613204715758796,
                "offset": -128,
                "scale": 0.00751031618418656
            },
            {
                "bitwidth": 8,
                "dtype": "int",
                "is_symmetric": "True",
                "max": 0.9317668080329895,
                "min": -0.9391035545529343,
                "offset": -128,
                "scale": 0.007336746519944799
            },
            {
                "bitwidth": 8,
                "dtype": "int",
                "is_symmetric": "True",
                "max": 1.036381483078003,
                "min": -1.0445419671967273,
                "offset": -128,
                "scale": 0.008160484118724432
            },
            {
                "bitwidth": 8,
                "dtype": "int",
                "is_symmetric": "True",
                "max": 0.9722080230712891,
                "min": -0.9798632043553149,
                "offset": -128,
                "scale": 0.007655181284025898
            },
            {
                "bitwidth": 8,
                "dtype": "int",
                "is_symmetric": "True",
                "max": 0.934054970741272,
                "min": -0.9414097342904159,
                "offset": -128,
                "scale": 0.007354763549143874
            },
            {
                "bitwidth": 8,
                "dtype": "int",
                "is_symmetric": "True",
                "max": 1.0305989980697632,
                "min": -1.03871395081047,
                "offset": -128,
                "scale": 0.008114952740706796
            },
            {
                "bitwidth": 8,
                "dtype": "int",
                "is_symmetric": "True",
                "max": 1.0443276166915894,
                "min": -1.0525506687915231,
                "offset": -128,
                "scale": 0.008223052099933775
            },
            {
                "bitwidth": 8,
                "dtype": "int",
                "is_symmetric": "True",
                "max": 1.074761152267456,
                "min": -1.0832238385057824,
                "offset": -128,
                "scale": 0.008462686238326425
            },
            {
                "bitwidth": 8,
                "dtype": "int",
                "is_symmetric": "True",
                "max": 0.9977781176567079,
                "min": -1.005634638268178,
                "offset": -128,
                "scale": 0.00785652061147014
            },
            {
                "bitwidth": 8,
                "dtype": "int",
                "is_symmetric": "True",
                "max": 1.0456758737564087,
                "min": -1.0539095420537032,
                "offset": -128,
                "scale": 0.008233668297294557
            },
            {
                "bitwidth": 8,
                "dtype": "int",
                "is_symmetric": "True",
                "max": 1.021742582321167,
                "min": -1.0297877995047982,
                "offset": -128,
                "scale": 0.008045217183631236
            },
            {
                "bitwidth": 8,
                "dtype": "int",
                "is_symmetric": "True",
                "max": 1.0128662586212158,
                "min": -1.020841583492249,
                "offset": -128,
                "scale": 0.007975324871033196
            },
            {
                "bitwidth": 8,
                "dtype": "int",
                "is_symmetric": "True",
                "max": 0.9491053819656372,
                "min": -0.956578652689776,
                "offset": -128,
                "scale": 0.007473270724138875
            },
            {
                "bitwidth": 8,
                "dtype": "int",
                "is_symmetric": "True",
                "max": 1.0258255004882812,
                "min": -1.0339028666338583,
                "offset": -128,
                "scale": 0.008077366145577018
            },
            {
                "bitwidth": 8,
                "dtype": "int",
                "is_symmetric": "True",
                "max": 1.0238280296325684,
                "min": -1.0318896676611713,
                "offset": -128,
                "scale": 0.0080616380286029
            },
            {
                "bitwidth": 8,
                "dtype": "int",
                "is_symmetric": "True",
                "max": 1.0224659442901611,
                "min": -1.0305168572373278,
                "offset": -128,
                "scale": 0.008050912947166623
            },
            {
                "bitwidth": 8,
                "dtype": "int",
                "is_symmetric": "True",
                "max": 0.9370866417884827,
                "min": -0.9444652767631951,
                "offset": -128,
                "scale": 0.007378634974712462
            },
            {
                "bitwidth": 8,
                "dtype": "int",
                "is_symmetric": "True",
                "max": 0.977303147315979,
                "min": -0.9849984476885457,
                "offset": -128,
                "scale": 0.0076953003725667634
            },
            {
                "bitwidth": 8,
                "dtype": "int",
                "is_symmetric": "True",
                "max": 0.9325380325317383,
                "min": -0.9398808516855315,
                "offset": -128,
                "scale": 0.007342819153793215
            },
            {
                "bitwidth": 8,
                "dtype": "int",
                "is_symmetric": "True",
                "max": 0.8776327967643738,
                "min": -0.8845432912270854,
                "offset": -128,
                "scale": 0.006910494462711605
            },
            {
                "bitwidth": 8,
                "dtype": "int",
                "is_symmetric": "True",
                "max": 1.0768128633499146,
                "min": -1.0852917047936146,
                "offset": -128,
                "scale": 0.008478841443700114
            },
            {
                "bitwidth": 8,
                "dtype": "int",
                "is_symmetric": "True",
                "max": 1.0280267000198364,
                "min": -1.0361213984451896,
                "offset": -128,
                "scale": 0.008094698425353044
            },
            {
                "bitwidth": 8,
                "dtype": "int",
                "is_symmetric": "True",
                "max": 1.0631035566329956,
                "min": -1.071474450779712,
                "offset": -128,
                "scale": 0.0083708941467165
            },
            {
                "bitwidth": 8,
                "dtype": "int",
                "is_symmetric": "True",
                "max": 1.0492403507232666,
                "min": -1.0575020857683317,
                "offset": -128,
                "scale": 0.008261735045065092
            },
            {
                "bitwidth": 8,
                "dtype": "int",
                "is_symmetric": "True",
                "max": 0.9592031836509705,
                "min": -0.9667559646246001,
                "offset": -128,
                "scale": 0.007552780973629688
            },
            {
                "bitwidth": 8,
                "dtype": "int",
                "is_symmetric": "True",
                "max": 0.9668937921524048,
                "min": -0.9745071290984867,
                "offset": -128,
                "scale": 0.007613336946081927
            },
            {
                "bitwidth": 8,
                "dtype": "int",
                "is_symmetric": "True",
                "max": 0.9260505437850952,
                "min": -0.9333422803503322,
                "offset": -128,
                "scale": 0.00729173656523697
            },
            {
                "bitwidth": 8,
                "dtype": "int",
                "is_symmetric": "True",
                "max": 1.0742764472961426,
                "min": -1.0827353169598917,
                "offset": -128,
                "scale": 0.008458869663749154
            },
            {
                "bitwidth": 8,
                "dtype": "int",
                "is_symmetric": "True",
                "max": 1.0524455308914185,
                "min": -1.0607325035756028,
                "offset": -128,
                "scale": 0.008286972684184397
            },
            {
                "bitwidth": 8,
                "dtype": "int",
                "is_symmetric": "True",
                "max": 1.0269443988800049,
                "min": -1.0350305752491389,
                "offset": -128,
                "scale": 0.008086176369133898
            },
            {
                "bitwidth": 8,
                "dtype": "int",
                "is_symmetric": "True",
                "max": 0.920348584651947,
                "min": -0.927595423901175,
                "offset": -128,
                "scale": 0.00724683924922793
            },
            {
                "bitwidth": 8,
                "dtype": "int",
                "is_symmetric": "True",
                "max": 0.9775071740150452,
                "min": -0.9852040808970534,
                "offset": -128,
                "scale": 0.007696906882008229
            },
            {
                "bitwidth": 8,
                "dtype": "int",
                "is_symmetric": "True",
                "max": 1.068984866142273,
                "min": -1.0774020698126845,
                "offset": -128,
                "scale": 0.008417203670411598
            },
            {
                "bitwidth": 8,
                "dtype": "int",
                "is_symmetric": "True",
                "max": 1.0241503715515137,
                "min": -1.0322145477054625,
                "offset": -128,
                "scale": 0.008064176153948926
            },
            {
                "bitwidth": 8,
                "dtype": "int",
                "is_symmetric": "True",
                "max": 1.0391311645507812,
                "min": -1.0473132997047243,
                "offset": -128,
                "scale": 0.008182135153943159
            },
            {
                "bitwidth": 8,
                "dtype": "int",
                "is_symmetric": "True",
                "max": 0.8739358186721802,
                "min": -0.8808172030711737,
                "offset": -128,
                "scale": 0.006881384398993545
            },
            {
                "bitwidth": 8,
                "dtype": "int",
                "is_symmetric": "True",
                "max": 0.9748926162719727,
                "min": -0.9825689360851378,
                "offset": -128,
                "scale": 0.007676319813165139
            },
            {
                "bitwidth": 8,
                "dtype": "int",
                "is_symmetric": "True",
                "max": 1.0056734085083008,
                "min": -1.0135920967642718,
                "offset": -128,
                "scale": 0.007918688255970873
            },
            {
                "bitwidth": 8,
                "dtype": "int",
                "is_symmetric": "True",
                "max": 1.0181961059570312,
                "min": -1.0262133981299213,
                "offset": -128,
                "scale": 0.00801729217289001
            },
            {
                "bitwidth": 8,
                "dtype": "int",
                "is_symmetric": "True",
                "max": 0.9597436189651489,
                "min": -0.9673006553349532,
                "offset": -128,
                "scale": 0.007557036369804322
            },
            {
                "bitwidth": 8,
                "dtype": "int",
                "is_symmetric": "True",
                "max": 1.0184732675552368,
                "min": -1.0264927421029157,
                "offset": -128,
                "scale": 0.00801947454767903
            },
            {
                "bitwidth": 8,
                "dtype": "int",
                "is_symmetric": "True",
                "max": 0.8951564431190491,
                "min": -0.9022049190491204,
                "offset": -128,
                "scale": 0.007048475930071253
            },
            {
                "bitwidth": 8,
                "dtype": "int",
                "is_symmetric": "True",
                "max": 1.0234498977661133,
                "min": -1.031508558378445,
                "offset": -128,
                "scale": 0.0080586606123316
            },
            {
                "bitwidth": 8,
                "dtype": "int",
                "is_symmetric": "True",
                "max": 1.1000471115112305,
                "min": -1.1087088997908465,
                "offset": -128,
                "scale": 0.008661788279615988
            },
            {
                "bitwidth": 8,
                "dtype": "int",
                "is_symmetric": "True",
                "max": 0.9945478439331055,
                "min": -1.0023789293184056,
                "offset": -128,
                "scale": 0.007831085385300043
            },
            {
                "bitwidth": 8,
                "dtype": "int",
                "is_symmetric": "True",
                "max": 1.089336633682251,
                "min": -1.0979140874907727,
                "offset": -128,
                "scale": 0.008577453808521662
            },
            {
                "bitwidth": 8,
                "dtype": "int",
                "is_symmetric": "True",
                "max": 0.862220287322998,
                "min": -0.8690094234436516,
                "offset": -128,
                "scale": 0.006789136120653528
            },
            {
                "bitwidth": 8,
                "dtype": "int",
                "is_symmetric": "True",
                "max": 0.9986070394515991,
                "min": -1.0064700870063361,
                "offset": -128,
                "scale": 0.007863047554737001
            },
            {
                "bitwidth": 8,
                "dtype": "int",
                "is_symmetric": "True",
                "max": 0.9865346550941467,
                "min": -0.9943026445043368,
                "offset": -128,
                "scale": 0.007767989410190131
            },
            {
                "bitwidth": 8,
                "dtype": "int",
                "is_symmetric": "True",
                "max": 1.0115752220153809,
                "min": -1.0195403812438484,
                "offset": -128,
                "scale": 0.007965159228467565
            },
            {
                "bitwidth": 8,
                "dtype": "int",
                "is_symmetric": "True",
                "max": 1.0536919832229614,
                "min": -1.0619887704924336,
                "offset": -128,
                "scale": 0.008296787269472137
            },
            {
                "bitwidth": 8,
                "dtype": "int",
                "is_symmetric": "True",
                "max": 0.9749582409858704,
                "min": -0.9826350775290662,
                "offset": -128,
                "scale": 0.00767683654319583
            },
            {
                "bitwidth": 8,
                "dtype": "int",
                "is_symmetric": "True",
                "max": 0.977609395980835,
                "min": -0.9853071077602116,
                "offset": -128,
                "scale": 0.007697711779376653
            },
            {
                "bitwidth": 8,
                "dtype": "int",
                "is_symmetric": "True",
                "max": 0.9793317317962646,
                "min": -0.9870430052749753,
                "offset": -128,
                "scale": 0.007711273478710745
            },
            {
                "bitwidth": 8,
                "dtype": "int",
                "is_symmetric": "True",
                "max": 0.9586659073829651,
                "min": -0.9662144578347994,
                "offset": -128,
                "scale": 0.0075485504518343705
            },
            {
                "bitwidth": 8,
                "dtype": "int",
                "is_symmetric": "True",
                "max": 1.0140336751937866,
                "min": -1.0220181923212968,
                "offset": -128,
                "scale": 0.007984517127510131
            },
            {
                "bitwidth": 8,
                "dtype": "int",
                "is_symmetric": "True",
                "max": 1.0432658195495605,
                "min": -1.0514805110420768,
                "offset": -128,
                "scale": 0.008214691492516225
            },
            {
                "bitwidth": 8,
                "dtype": "int",
                "is_symmetric": "True",
                "max": 0.8752259016036987,
                "min": -0.8821174441360113,
                "offset": -128,
                "scale": 0.006891542532312589
            }
        ],
        "dnet1.conv2.blocks.2.conv_reparam.weight": [
            {
                "bitwidth": 8,
                "dtype": "int",
                "is_symmetric": "True",
                "max": 1.0329011678695679,
                "min": -1.0410342479315329,
                "offset": -128,
                "scale": 0.0081330800619651
            },
            {
                "bitwidth": 8,
                "dtype": "int",
                "is_symmetric": "True",
                "max": 1.02834951877594,
                "min": -1.0364467590812623,
                "offset": -128,
                "scale": 0.008097240305322361
            },
            {
                "bitwidth": 8,
                "dtype": "int",
                "is_symmetric": "True",
                "max": 0.9826802611351013,
                "min": -0.9904179009865588,
                "offset": -128,
                "scale": 0.007737639851457491
            },
            {
                "bitwidth": 8,
                "dtype": "int",
                "is_symmetric": "True",
                "max": 1.070806860923767,
                "min": -1.079238411009781,
                "offset": -128,
                "scale": 0.008431550086013914
            },
            {
                "bitwidth": 8,
                "dtype": "int",
                "is_symmetric": "True",
                "max": 0.9306560754776001,
                "min": -0.9379840760719119,
                "offset": -128,
                "scale": 0.007328000594311812
            },
            {
                "bitwidth": 8,
                "dtype": "int",
                "is_symmetric": "True",
                "max": 1.0173454284667969,
                "min": -1.0253560223917322,
                "offset": -128,
                "scale": 0.008010593924935408
            },
            {
                "bitwidth": 8,
                "dtype": "int",
                "is_symmetric": "True",
                "max": 0.9848056435585022,
                "min": -0.9925600187046322,
                "offset": -128,
                "scale": 0.007754375146129939
            },
            {
                "bitwidth": 8,
                "dtype": "int",
                "is_symmetric": "True",
                "max": 1.0570440292358398,
                "min": -1.0653672105684056,
                "offset": -128,
                "scale": 0.008323181332565668
            },
            {
                "bitwidth": 8,
                "dtype": "int",
                "is_symmetric": "True",
                "max": 0.98118656873703,
                "min": -0.9889124472310223,
                "offset": -128,
                "scale": 0.007725878493992362
            },
            {
                "bitwidth": 8,
                "dtype": "int",
                "is_symmetric": "True",
                "max": 0.9669296741485596,
                "min": -0.9745432936300443,
                "offset": -128,
                "scale": 0.007613619481484721
            },
            {
                "bitwidth": 8,
                "dtype": "int",
                "is_symmetric": "True",
                "max": 0.9611982107162476,
                "min": -0.968766700564407,
                "offset": -128,
                "scale": 0.007568489848159429
            },
            {
                "bitwidth": 8,
                "dtype": "int",
                "is_symmetric": "True",
                "max": 0.986354649066925,
                "min": -0.9941212211068221,
                "offset": -128,
                "scale": 0.007766572039897048
            },
            {
                "bitwidth": 8,
                "dtype": "int",
                "is_symmetric": "True",
                "max": 1.0262768268585205,
                "min": -1.0343577467550442,
                "offset": -128,
                "scale": 0.008080919896523783
            },
            {
                "bitwidth": 8,
                "dtype": "int",
                "is_symmetric": "True",
                "max": 1.0000603199005127,
                "min": -1.0079348106083907,
                "offset": -128,
                "scale": 0.007874490707878053
            },
            {
                "bitwidth": 8,
                "dtype": "int",
                "is_symmetric": "True",
                "max": 1.0300997495651245,
                "min": -1.0382107712152435,
                "offset": -128,
                "scale": 0.00811102165011909
            },
            {
                "bitwidth": 8,
                "dtype": "int",
                "is_symmetric": "True",
                "max": 1.0024311542510986,
                "min": -1.0103243129459891,
                "offset": -128,
                "scale": 0.00789315869489054
            },
            {
                "bitwidth": 8,
                "dtype": "int",
                "is_symmetric": "True",
                "max": 0.9894598126411438,
                "min": -0.9972508347879244,
                "offset": -128,
                "scale": 0.0077910221467806596
            },
            {
                "bitwidth": 8,
                "dtype": "int",
                "is_symmetric": "True",
                "max": 1.023691177368164,
                "min": -1.031751737819882,
                "offset": -128,
                "scale": 0.008060560451717828
            },
            {
                "bitwidth": 8,
                "dtype": "int",
                "is_symmetric": "True",
                "max": 1.0378944873809814,
                "min": -1.0460668849194144,
                "offset": -128,
                "scale": 0.008172397538432925
            },
            {
                "bitwidth": 8,
                "dtype": "int",
                "is_symmetric": "True",
                "max": 0.9995943307876586,
                "min": -1.0074651522899236,
                "offset": -128,
                "scale": 0.007870821502265028
            },
            {
                "bitwidth": 8,
                "dtype": "int",
                "is_symmetric": "True",
                "max": 0.9961997270584106,
                "min": -1.0040438193974532,
                "offset": -128,
                "scale": 0.007844092339042603
            },
            {
                "bitwidth": 8,
                "dtype": "int",
                "is_symmetric": "True",
                "max": 1.027785062789917,
                "min": -1.0358778585599164,
                "offset": -128,
                "scale": 0.008092795769999347
            },
            {
                "bitwidth": 8,
                "dtype": "int",
                "is_symmetric": "True",
                "max": 1.0123738050460815,
                "min": -1.020345252329909,
                "offset": -128,
                "scale": 0.007971447283827414
            },
            {
                "bitwidth": 8,
                "dtype": "int",
                "is_symmetric": "True",
                "max": 1.017335057258606,
                "min": -1.0253455695204847,
                "offset": -128,
                "scale": 0.008010512261878787
            },
            {
                "bitwidth": 8,
                "dtype": "int",
                "is_symmetric": "True",
                "max": 1.031012773513794,
                "min": -1.0391309843288632,
                "offset": -128,
                "scale": 0.008118210815069244
            },
            {
                "bitwidth": 8,
                "dtype": "int",
                "is_symmetric": "True",
                "max": 1.007498025894165,
                "min": -1.0154310812161664,
                "offset": -128,
                "scale": 0.0079330553220013
            },
            {
                "bitwidth": 8,
                "dtype": "int",
                "is_symmetric": "True",
                "max": 1.068770170211792,
                "min": -1.077185683363066,
                "offset": -128,
                "scale": 0.008415513151273953
            },
            {
                "bitwidth": 8,
                "dtype": "int",
                "is_symmetric": "True",
                "max": 1.0309581756591797,
                "min": -1.039075956569882,
                "offset": -128,
                "scale": 0.008117780910702203
            },
            {
                "bitwidth": 8,
                "dtype": "int",
                "is_symmetric": "True",
                "max": 0.9963675141334534,
                "min": -1.0042129276305671,
                "offset": -128,
                "scale": 0.007845413497113806
            },
            {
                "bitwidth": 8,
                "dtype": "int",
                "is_symmetric": "True",
                "max": 0.9619235992431641,
                "min": -0.9694978008120079,
                "offset": -128,
                "scale": 0.0075742015688438115
            },
            {
                "bitwidth": 8,
                "dtype": "int",
                "is_symmetric": "True",
                "max": 0.9967694878578185,
                "min": -1.0046180665023683,
                "offset": -128,
                "scale": 0.007848578644549752
            },
            {
                "bitwidth": 8,
                "dtype": "int",
                "is_symmetric": "True",
                "max": 1.014456868171692,
                "min": -1.0224447175273745,
                "offset": -128,
                "scale": 0.007987849355682614
            },
            {
                "bitwidth": 8,
                "dtype": "int",
                "is_symmetric": "True",
                "max": 1.0186872482299805,
                "min": -1.0267084076648623,
                "offset": -128,
                "scale": 0.008021159434881736
            },
            {
                "bitwidth": 8,
                "dtype": "int",
                "is_symmetric": "True",
                "max": 0.998853087425232,
                "min": -1.0067180723655882,
                "offset": -128,
                "scale": 0.007864984940356158
            },
            {
                "bitwidth": 8,
                "dtype": "int",
                "is_symmetric": "True",
                "max": 0.9968331456184388,
                "min": -1.0046822255051981,
                "offset": -128,
                "scale": 0.00784907988675936
            },
            {
                "bitwidth": 8,
                "dtype": "int",
                "is_symmetric": "True",
                "max": 0.9971035718917846,
                "min": -1.004954781119279,
                "offset": -128,
                "scale": 0.007851209227494367
            },
            {
                "bitwidth": 8,
                "dtype": "int",
                "is_symmetric": "True",
                "max": 0.9833648800849915,
                "min": -0.9911079106368418,
                "offset": -128,
                "scale": 0.007743030551850326
            },
            {
                "bitwidth": 8,
                "dtype": "int",
                "is_symmetric": "True",
                "max": 0.9346017241477966,
                "min": -0.9419607928418737,
                "offset": -128,
                "scale": 0.0073590686940771385
            },
            {
                "bitwidth": 8,
                "dtype": "int",
                "is_symmetric": "True",
                "max": 1.0085326433181763,
                "min": -1.0164738452340674,
                "offset": -128,
                "scale": 0.007941201915891151
            },
            {
                "bitwidth": 8,
                "dtype": "int",
                "is_symmetric": "True",
                "max": 0.9448556900024414,
                "min": -0.9522954985851378,
                "offset": -128,
                "scale": 0.007439808582696389
            },
            {
                "bitwidth": 8,
                "dtype": "int",
                "is_symmetric": "True",
                "max": 1.006592035293579,
                "min": -1.0145179568313238,
                "offset": -128,
                "scale": 0.007925921537744718
            },
            {
                "bitwidth": 8,
                "dtype": "int",
                "is_symmetric": "True",
                "max": 1.0256675481796265,
                "min": -1.0337436706062377,
                "offset": -128,
                "scale": 0.008076122426611232
            },
            {
                "bitwidth": 8,
                "dtype": "int",
                "is_symmetric": "True",
                "max": 0.9472532272338867,
                "min": -0.9547119140625,
                "offset": -128,
                "scale": 0.007458686828613281
            },
            {
                "bitwidth": 8,
                "dtype": "int",
                "is_symmetric": "True",
                "max": 1.0330426692962646,
                "min": -1.041176863542692,
                "offset": -128,
                "scale": 0.00813419424642728
            },
            {
                "bitwidth": 8,
                "dtype": "int",
                "is_symmetric": "True",
                "max": 1.066789150238037,
                "min": -1.0751890648068405,
                "offset": -128,
                "scale": 0.008399914568803441
            },
            {
                "bitwidth": 8,
                "dtype": "int",
                "is_symmetric": "True",
                "max": 0.9475142955780029,
                "min": -0.9549750380628691,
                "offset": -128,
                "scale": 0.007460742484866165
            },
            {
                "bitwidth": 8,
                "dtype": "int",
                "is_symmetric": "True",
                "max": 1.0264774560928345,
                "min": -1.0345599557471088,
                "offset": -128,
                "scale": 0.008082499654274287
            },
            {
                "bitwidth": 8,
                "dtype": "int",
                "is_symmetric": "True",
                "max": 0.9566001892089844,
                "min": -0.9641324741633859,
                "offset": -128,
                "scale": 0.007532284954401452
            },
            {
                "bitwidth": 8,
                "dtype": "int",
                "is_symmetric": "True",
                "max": 1.0403162240982056,
                "min": -1.0485076904296875,
                "offset": -128,
                "scale": 0.008191466331481934
            },
            {
                "bitwidth": 8,
                "dtype": "int",
                "is_symmetric": "True",
                "max": 1.0576057434082031,
                "min": -1.0659333476870079,
                "offset": -128,
                "scale": 0.008327604278804749
            },
            {
                "bitwidth": 8,
                "dtype": "int",
                "is_symmetric": "True",
                "max": 1.0333422422409058,
                "min": -1.041478795329417,
                "offset": -128,
                "scale": 0.00813655308851107
            },
            {
                "bitwidth": 8,
                "dtype": "int",
                "is_symmetric": "True",
                "max": 0.9800555109977722,
                "min": -0.9877724835253138,
                "offset": -128,
                "scale": 0.007716972527541514
            },
            {
                "bitwidth": 8,
                "dtype": "int",
                "is_symmetric": "True",
                "max": 1.068703293800354,
                "min": -1.0771182803657111,
                "offset": -128,
                "scale": 0.008414986565357118
            },
            {
                "bitwidth": 8,
                "dtype": "int",
                "is_symmetric": "True",
                "max": 1.0047473907470703,
                "min": -1.0126587875246063,
                "offset": -128,
                "scale": 0.007911396777535986
            },
            {
                "bitwidth": 8,
                "dtype": "int",
                "is_symmetric": "True",
                "max": 1.0197440385818481,
                "min": -1.0277735192006028,
                "offset": -128,
                "scale": 0.00802948061875471
            },
            {
                "bitwidth": 8,
                "dtype": "int",
                "is_symmetric": "True",
                "max": 1.0374397039413452,
                "min": -1.0456085205078125,
                "offset": -128,
                "scale": 0.008168816566467285
            },
            {
                "bitwidth": 8,
                "dtype": "int",
                "is_symmetric": "True",
                "max": 1.0060851573944092,
                "min": -1.0140070877675935,
                "offset": -128,
                "scale": 0.007921930373184324
            },
            {
                "bitwidth": 8,
                "dtype": "int",
                "is_symmetric": "True",
                "max": 0.9943386316299438,
                "min": -1.002168069674274,
                "offset": -128,
                "scale": 0.007829438044330266
            },
            {
                "bitwidth": 8,
                "dtype": "int",
                "is_symmetric": "True",
                "max": 0.9396697282791138,
                "min": -0.947068702517532,
                "offset": -128,
                "scale": 0.007398974238418218
            },
            {
                "bitwidth": 8,
                "dtype": "int",
                "is_symmetric": "True",
                "max": 0.9145337343215942,
                "min": -0.9217347873477485,
                "offset": -128,
                "scale": 0.007201053026154285
            },
            {
                "bitwidth": 8,
                "dtype": "int",
                "is_symmetric": "True",
                "max": 1.0703608989715576,
                "min": -1.0787889375461368,
                "offset": -128,
                "scale": 0.008428038574579194
            },
            {
                "bitwidth": 8,
                "dtype": "int",
                "is_symmetric": "True",
                "max": 1.0031287670135498,
                "min": -1.0110274187223178,
                "offset": -128,
                "scale": 0.007898651708768108
            },
            {
                "bitwidth": 8,
                "dtype": "int",
                "is_symmetric": "True",
                "max": 1.0291452407836914,
                "min": -1.0372487466166338,
                "offset": -128,
                "scale": 0.008103505832942452
            },
            {
                "bitwidth": 8,
                "dtype": "int",
                "is_symmetric": "True",
                "max": 1.0332834720611572,
                "min": -1.0414195623923475,
                "offset": -128,
                "scale": 0.008136090331190214
            }
        ],
        "dnet1.conv3.blocks.0.conv_reparam.weight": [
            {
                "bitwidth": 8,
                "dtype": "int",
                "is_symmetric": "True",
                "max": 0.9682051539421082,
                "min": -0.9758288165715736,
                "offset": -128,
                "scale": 0.007623662629465419
            },
            {
                "bitwidth": 8,
                "dtype": "int",
                "is_symmetric": "True",
                "max": 0.9607341289520264,
                "min": -0.968298964613066,
                "offset": -128,
                "scale": 0.007564835661039578
            },
            {
                "bitwidth": 8,
                "dtype": "int",
                "is_symmetric": "True",
                "max": 0.9055485129356384,
                "min": -0.9126788161871001,
                "offset": -128,
                "scale": 0.00713030325146172
            },
            {
                "bitwidth": 8,
                "dtype": "int",
                "is_symmetric": "True",
                "max": 0.9869426488876343,
                "min": -0.9947138508473794,
                "offset": -128,
                "scale": 0.0077712019597451516
            },
            {
                "bitwidth": 8,
                "dtype": "int",
                "is_symmetric": "True",
                "max": 0.9805921316146851,
                "min": -0.9883133295014148,
                "offset": -128,
                "scale": 0.007721197886729803
            },
            {
                "bitwidth": 8,
                "dtype": "int",
                "is_symmetric": "True",
                "max": 0.9900907874107361,
                "min": -0.9978867778627891,
                "offset": -128,
                "scale": 0.00779599045205304
            },
            {
                "bitwidth": 8,
                "dtype": "int",
                "is_symmetric": "True",
                "max": 1.009891390800476,
                "min": -1.0178432915154405,
                "offset": -128,
                "scale": 0.007951900714964379
            },
            {
                "bitwidth": 8,
                "dtype": "int",
                "is_symmetric": "True",
                "max": 1.0384451150894165,
                "min": -1.046621848279097,
                "offset": -128,
                "scale": 0.008176733189680445
            },
            {
                "bitwidth": 8,
                "dtype": "int",
                "is_symmetric": "True",
                "max": 1.0509183406829834,
                "min": -1.0591932882474164,
                "offset": -128,
                "scale": 0.008274947564432941
            },
            {
                "bitwidth": 8,
                "dtype": "int",
                "is_symmetric": "True",
                "max": 1.039779782295227,
                "min": -1.0479670246755044,
                "offset": -128,
                "scale": 0.008187242380277378
            },
            {
                "bitwidth": 8,
                "dtype": "int",
                "is_symmetric": "True",
                "max": 0.9344513416290283,
                "min": -0.9418092262087845,
                "offset": -128,
                "scale": 0.007357884579756129
            },
            {
                "bitwidth": 8,
                "dtype": "int",
                "is_symmetric": "True",
                "max": 0.9786533713340759,
                "min": -0.9863593033918245,
                "offset": -128,
                "scale": 0.007705932057748629
            },
            {
                "bitwidth": 8,
                "dtype": "int",
                "is_symmetric": "True",
                "max": 1.0140236616134644,
                "min": -1.0220080998938854,
                "offset": -128,
                "scale": 0.00798443828042098
            },
            {
                "bitwidth": 8,
                "dtype": "int",
                "is_symmetric": "True",
                "max": 1.0740201473236084,
                "min": -1.0824769988773375,
                "offset": -128,
                "scale": 0.0084568515537292
            },
            {
                "bitwidth": 8,
                "dtype": "int",
                "is_symmetric": "True",
                "max": 0.8959687948226929,
                "min": -0.9030236672228715,
                "offset": -128,
                "scale": 0.007054872400178684
            },
            {
                "bitwidth": 8,
                "dtype": "int",
                "is_symmetric": "True",
                "max": 1.0223238468170166,
                "min": -1.030373640886442,
                "offset": -128,
                "scale": 0.008049794069425327
            },
            {
                "bitwidth": 8,
                "dtype": "int",
                "is_symmetric": "True",
                "max": 1.0269126892089844,
                "min": -1.0349986158956692,
                "offset": -128,
                "scale": 0.008085926686684916
            },
            {
                "bitwidth": 8,
                "dtype": "int",
                "is_symmetric": "True",
                "max": 1.0098789930343628,
                "min": -1.0178307961291215,
                "offset": -128,
                "scale": 0.007951803094758762
            },
            {
                "bitwidth": 8,
                "dtype": "int",
                "is_symmetric": "True",
                "max": 1.0466244220733643,
                "min": -1.0548655592550442,
                "offset": -128,
                "scale": 0.008241137181680033
            },
            {
                "bitwidth": 8,
                "dtype": "int",
                "is_symmetric": "True",
                "max": 0.886070728302002,
                "min": -0.8930476631705216,
                "offset": -128,
                "scale": 0.0069769348685197
            },
            {
                "bitwidth": 8,
                "dtype": "int",
                "is_symmetric": "True",
                "max": 0.9738765954971313,
                "min": -0.981544915146715,
                "offset": -128,
                "scale": 0.007668319649583711
            },
            {
                "bitwidth": 8,
                "dtype": "int",
                "is_symmetric": "True",
                "max": 0.9412679672241211,
                "min": -0.9486795260211615,
                "offset": -128,
                "scale": 0.007411558797040324
            },
            {
                "bitwidth": 8,
                "dtype": "int",
                "is_symmetric": "True",
                "max": 0.9662811756134033,
                "min": -0.9738896888072096,
                "offset": -128,
                "scale": 0.007608513193806325
            },
            {
                "bitwidth": 8,
                "dtype": "int",
                "is_symmetric": "True",
                "max": 0.9660801291465759,
                "min": -0.9736870592973363,
                "offset": -128,
                "scale": 0.00760693015076044
            },
            {
                "bitwidth": 8,
                "dtype": "int",
                "is_symmetric": "True",
                "max": 0.9311574101448059,
                "min": -0.9384893582561823,
                "offset": -128,
                "scale": 0.007331948111376424
            },
            {
                "bitwidth": 8,
                "dtype": "int",
                "is_symmetric": "True",
                "max": 1.0077488422393799,
                "min": -1.0156838724932333,
                "offset": -128,
                "scale": 0.007935030253853385
            },
            {
                "bitwidth": 8,
                "dtype": "int",
                "is_symmetric": "True",
                "max": 1.0217626094818115,
                "min": -1.029807984359621,
                "offset": -128,
                "scale": 0.00804537487780954
            },
            {
                "bitwidth": 8,
                "dtype": "int",
                "is_symmetric": "True",
                "max": 0.9322893619537354,
                "min": -0.9396302230714813,
                "offset": -128,
                "scale": 0.007340861117745947
            },
            {
                "bitwidth": 8,
                "dtype": "int",
                "is_symmetric": "True",
                "max": 1.029210090637207,
                "min": -1.0373141070989174,
                "offset": -128,
                "scale": 0.008104016461710292
            },
            {
                "bitwidth": 8,
                "dtype": "int",
                "is_symmetric": "True",
                "max": 0.990038275718689,
                "min": -0.9978338526928519,
                "offset": -128,
                "scale": 0.007795576974162905
            },
            {
                "bitwidth": 8,
                "dtype": "int",
                "is_symmetric": "True",
                "max": 0.951431393623352,
                "min": -0.9589229793999139,
                "offset": -128,
                "scale": 0.007491585776561827
            },
            {
                "bitwidth": 8,
                "dtype": "int",
                "is_symmetric": "True",
                "max": 0.9808045029640198,
                "min": -0.9885273730660987,
                "offset": -128,
                "scale": 0.007722870102078896
            },
            {
                "bitwidth": 8,
                "dtype": "int",
                "is_symmetric": "True",
                "max": 0.9348363280296326,
                "min": -0.9421972439983698,
                "offset": -128,
                "scale": 0.007360915968737264
            },
            {
                "bitwidth": 8,
                "dtype": "int",
                "is_symmetric": "True",
                "max": 1.0322673320770264,
                "min": -1.0403954213059794,
                "offset": -128,
                "scale": 0.008128089228952964
            },
            {
                "bitwidth": 8,
                "dtype": "int",
                "is_symmetric": "True",
                "max": 0.9668504595756531,
                "min": -0.9744634553203433,
                "offset": -128,
                "scale": 0.007612995744690182
            },
            {
                "bitwidth": 8,
                "dtype": "int",
                "is_symmetric": "True",
                "max": 1.0774003267288208,
                "min": -1.0858837938684178,
                "offset": -128,
                "scale": 0.008483467139597014
            },
            {
                "bitwidth": 8,
                "dtype": "int",
                "is_symmetric": "True",
                "max": 0.9007580280303955,
                "min": -0.9078506109282727,
                "offset": -128,
                "scale": 0.00709258289787713
            },
            {
                "bitwidth": 8,
                "dtype": "int",
                "is_symmetric": "True",
                "max": 1.0033092498779297,
                "min": -1.0112093227116141,
                "offset": -128,
                "scale": 0.007900072833684485
            },
            {
                "bitwidth": 8,
                "dtype": "int",
                "is_symmetric": "True",
                "max": 0.9900070428848267,
                "min": -0.9978023739311639,
                "offset": -128,
                "scale": 0.007795331046337218
            },
            {
                "bitwidth": 8,
                "dtype": "int",
                "is_symmetric": "True",
                "max": 0.9253737926483154,
                "min": -0.9326602004644439,
                "offset": -128,
                "scale": 0.007286407816128468
            },
            {
                "bitwidth": 8,
                "dtype": "int",
                "is_symmetric": "True",
                "max": 1.0369303226470947,
                "min": -1.0450951283372294,
                "offset": -128,
                "scale": 0.008164805690134605
            },
            {
                "bitwidth": 8,
                "dtype": "int",
                "is_symmetric": "True",
                "max": 1.0341681241989136,
                "min": -1.042311180294968,
                "offset": -128,
                "scale": 0.008143056096054438
            },
            {
                "bitwidth": 8,
                "dtype": "int",
                "is_symmetric": "True",
                "max": 1.0051827430725098,
                "min": -1.0130975678211123,
                "offset": -128,
                "scale": 0.00791482474860244
            },
            {
                "bitwidth": 8,
                "dtype": "int",
                "is_symmetric": "True",
                "max": 0.9453941583633423,
                "min": -0.9528382068543922,
                "offset": -128,
                "scale": 0.007444048491049939
            },
            {
                "bitwidth": 8,
                "dtype": "int",
                "is_symmetric": "True",
                "max": 0.9821809530258179,
                "min": -0.9899146613173597,
                "offset": -128,
                "scale": 0.007733708291541873
            },
            {
                "bitwidth": 8,
                "dtype": "int",
                "is_symmetric": "True",
                "max": 1.0161662101745605,
                "min": -1.0241675189160926,
                "offset": -128,
                "scale": 0.008001308741531973
            },
            {
                "bitwidth": 8,
                "dtype": "int",
                "is_symmetric": "True",
                "max": 0.9461525678634644,
                "min": -0.9536025880828617,
                "offset": -128,
                "scale": 0.007450020219397357
            },
            {
                "bitwidth": 8,
                "dtype": "int",
                "is_symmetric": "True",
                "max": 1.08091402053833,
                "min": -1.089425154558317,
                "offset": -128,
                "scale": 0.00851113401998685
            },
            {
                "bitwidth": 8,
                "dtype": "int",
                "is_symmetric": "True",
                "max": 0.9765259027481079,
                "min": -0.9842150830847072,
                "offset": -128,
                "scale": 0.007689180336599275
            },
            {
                "bitwidth": 8,
                "dtype": "int",
                "is_symmetric": "True",
                "max": 1.1012160778045654,
                "min": -1.109887070543184,
                "offset": -128,
                "scale": 0.008670992738618625
            },
            {
                "bitwidth": 8,
                "dtype": "int",
                "is_symmetric": "True",
                "max": 0.9557415843009949,
                "min": -0.9632671085868295,
                "offset": -128,
                "scale": 0.0075255242858346056
            },
            {
                "bitwidth": 8,
                "dtype": "int",
                "is_symmetric": "True",
                "max": 0.9055525660514832,
                "min": -0.9126829012172428,
                "offset": -128,
                "scale": 0.00713033516575971
            },
            {
                "bitwidth": 8,
                "dtype": "int",
                "is_symmetric": "True",
                "max": 0.9954482316970825,
                "min": -1.0032864067498155,
                "offset": -128,
                "scale": 0.007838175052732934
            },
            {
                "bitwidth": 8,
                "dtype": "int",
                "is_symmetric": "True",
                "max": 0.9973347187042236,
                "min": -1.0051877479853593,
                "offset": -128,
                "scale": 0.00785302928113562
            },
            {
                "bitwidth": 8,
                "dtype": "int",
                "is_symmetric": "True",
                "max": 0.9329559803009033,
                "min": -0.9403020903820128,
                "offset": -128,
                "scale": 0.007346110081109475
            },
            {
                "bitwidth": 8,
                "dtype": "int",
                "is_symmetric": "True",
                "max": 0.9497032165527344,
                "min": -0.9571811946358267,
                "offset": -128,
                "scale": 0.007477978083092396
            },
            {
                "bitwidth": 8,
                "dtype": "int",
                "is_symmetric": "True",
                "max": 1.0047816038131714,
                "min": -1.0126932699849287,
                "offset": -128,
                "scale": 0.007911666171757255
            },
            {
                "bitwidth": 8,
                "dtype": "int",
                "is_symmetric": "True",
                "max": 0.9216673970222473,
                "min": -0.9289246206208477,
                "offset": -128,
                "scale": 0.0072572235986003725
            },
            {
                "bitwidth": 8,
                "dtype": "int",
                "is_symmetric": "True",
                "max": 1.0340696573257446,
                "min": -1.0422119380920891,
                "offset": -128,
                "scale": 0.008142280766344446
            },
            {
                "bitwidth": 8,
                "dtype": "int",
                "is_symmetric": "True",
                "max": 1.0349494218826294,
                "min": -1.0430986299289493,
                "offset": -128,
                "scale": 0.008149208046319916
            },
            {
                "bitwidth": 8,
                "dtype": "int",
                "is_symmetric": "True",
                "max": 0.991486132144928,
                "min": -0.999293109563392,
                "offset": -128,
                "scale": 0.007806977418464
            },
            {
                "bitwidth": 8,
                "dtype": "int",
                "is_symmetric": "True",
                "max": 0.990478515625,
                "min": -0.9982775590551181,
                "offset": -128,
                "scale": 0.00779904343011811
            },
            {
                "bitwidth": 8,
                "dtype": "int",
                "is_symmetric": "True",
                "max": 0.9445545077323914,
                "min": -0.9519919448011503,
                "offset": -128,
                "scale": 0.007437437068758987
            },
            {
                "bitwidth": 8,
                "dtype": "int",
                "is_symmetric": "True",
                "max": 0.9967081546783447,
                "min": -1.0045562503844734,
                "offset": -128,
                "scale": 0.007848095706128698
            },
            {
                "bitwidth": 8,
                "dtype": "int",
                "is_symmetric": "True",
                "max": 1.0478259325027466,
                "min": -1.056076530396469,
                "offset": -128,
                "scale": 0.008250597893722414
            },
            {
                "bitwidth": 8,
                "dtype": "int",
                "is_symmetric": "True",
                "max": 0.9431874752044678,
                "min": -0.9506141482375738,
                "offset": -128,
                "scale": 0.007426673033106046
            },
            {
                "bitwidth": 8,
                "dtype": "int",
                "is_symmetric": "True",
                "max": 1.104068636894226,
                "min": -1.1127620907280389,
                "offset": -128,
                "scale": 0.008693453833812804
            },
            {
                "bitwidth": 8,
                "dtype": "int",
                "is_symmetric": "True",
                "max": 0.9661519527435303,
                "min": -0.9737594484344242,
                "offset": -128,
                "scale": 0.007607495690893939
            },
            {
                "bitwidth": 8,
                "dtype": "int",
                "is_symmetric": "True",
                "max": 1.0660825967788696,
                "min": -1.0744769479346088,
                "offset": -128,
                "scale": 0.008394351155739131
            },
            {
                "bitwidth": 8,
                "dtype": "int",
                "is_symmetric": "True",
                "max": 1.002909779548645,
                "min": -1.0108067069466657,
                "offset": -128,
                "scale": 0.007896927398020826
            },
            {
                "bitwidth": 8,
                "dtype": "int",
                "is_symmetric": "True",
                "max": 0.9344311952590942,
                "min": -0.9417889212060162,
                "offset": -128,
                "scale": 0.007357725946922002
            },
            {
                "bitwidth": 8,
                "dtype": "int",
                "is_symmetric": "True",
                "max": 0.9617707133293152,
                "min": -0.9693437110720657,
                "offset": -128,
                "scale": 0.007572997742750514
            },
            {
                "bitwidth": 8,
                "dtype": "int",
                "is_symmetric": "True",
                "max": 1.0125752687454224,
                "min": -1.020548302357591,
                "offset": -128,
                "scale": 0.00797303361216868
            },
            {
                "bitwidth": 8,
                "dtype": "int",
                "is_symmetric": "True",
                "max": 1.0435688495635986,
                "min": -1.0517859271192176,
                "offset": -128,
                "scale": 0.008217077555618887
            },
            {
                "bitwidth": 8,
                "dtype": "int",
                "is_symmetric": "True",
                "max": 0.9785692095756531,
                "min": -0.9862744789423905,
                "offset": -128,
                "scale": 0.007705269366737426
            },
            {
                "bitwidth": 8,
                "dtype": "int",
                "is_symmetric": "True",
                "max": 1.017196774482727,
                "min": -1.025206197903851,
                "offset": -128,
                "scale": 0.008009423421123835
            },
            {
                "bitwidth": 8,
                "dtype": "int",
                "is_symmetric": "True",
                "max": 1.0438660383224487,
                "min": -1.052085455947035,
                "offset": -128,
                "scale": 0.00821941762458621
            },
            {
                "bitwidth": 8,
                "dtype": "int",
                "is_symmetric": "True",
                "max": 0.9025156497955322,
                "min": -0.9096220722348671,
                "offset": -128,
                "scale": 0.0071064224393348994
            },
            {
                "bitwidth": 8,
                "dtype": "int",
                "is_symmetric": "True",
                "max": 0.9887729287147522,
                "min": -0.9965585423266794,
                "offset": -128,
                "scale": 0.007785613611927183
            },
            {
                "bitwidth": 8,
                "dtype": "int",
                "is_symmetric": "True",
                "max": 0.9714968204498291,
                "min": -0.9791464017132135,
                "offset": -128,
                "scale": 0.007649581263384481
            },
            {
                "bitwidth": 8,
                "dtype": "int",
                "is_symmetric": "True",
                "max": 0.9679323434829712,
                "min": -0.9755538579985852,
                "offset": -128,
                "scale": 0.007621514515613947
            },
            {
                "bitwidth": 8,
                "dtype": "int",
                "is_symmetric": "True",
                "max": 1.0048588514328003,
                "min": -1.012771125853531,
                "offset": -128,
                "scale": 0.007912274420730711
            },
            {
                "bitwidth": 8,
                "dtype": "int",
                "is_symmetric": "True",
                "max": 1.033380150794983,
                "min": -1.0415170023760458,
                "offset": -128,
                "scale": 0.008136851581062858
            },
            {
                "bitwidth": 8,
                "dtype": "int",
                "is_symmetric": "True",
                "max": 0.945892870426178,
                "min": -0.9533408457838645,
                "offset": -128,
                "scale": 0.007447975357686441
            },
            {
                "bitwidth": 8,
                "dtype": "int",
                "is_symmetric": "True",
                "max": 1.0365456342697144,
                "min": -1.0447074109175074,
                "offset": -128,
                "scale": 0.008161776647793027
            },
            {
                "bitwidth": 8,
                "dtype": "int",
                "is_symmetric": "True",
                "max": 0.9616730213165283,
                "min": -0.9692452498308317,
                "offset": -128,
                "scale": 0.007572228514303373
            },
            {
                "bitwidth": 8,
                "dtype": "int",
                "is_symmetric": "True",
                "max": 1.1324716806411743,
                "min": -1.1413887804887426,
                "offset": -128,
                "scale": 0.008917099847568302
            },
            {
                "bitwidth": 8,
                "dtype": "int",
                "is_symmetric": "True",
                "max": 1.1080955266952515,
                "min": -1.1168206883227731,
                "offset": -128,
                "scale": 0.008725161627521665
            },
            {
                "bitwidth": 8,
                "dtype": "int",
                "is_symmetric": "True",
                "max": 0.9293065667152405,
                "min": -0.9366239412563053,
                "offset": -128,
                "scale": 0.007317374541064885
            },
            {
                "bitwidth": 8,
                "dtype": "int",
                "is_symmetric": "True",
                "max": 0.995716392993927,
                "min": -1.0035566795529343,
                "offset": -128,
                "scale": 0.007840286559007299
            },
            {
                "bitwidth": 8,
                "dtype": "int",
                "is_symmetric": "True",
                "max": 0.9245705008506775,
                "min": -0.9318505835345411,
                "offset": -128,
                "scale": 0.007280082683863602
            },
            {
                "bitwidth": 8,
                "dtype": "int",
                "is_symmetric": "True",
                "max": 1.0508928298950195,
                "min": -1.0591675765871063,
                "offset": -128,
                "scale": 0.008274746692086768
            },
            {
                "bitwidth": 8,
                "dtype": "int",
                "is_symmetric": "True",
                "max": 0.9997483491897583,
                "min": -1.007620383435347,
                "offset": -128,
                "scale": 0.007872034245588648
            },
            {
                "bitwidth": 8,
                "dtype": "int",
                "is_symmetric": "True",
                "max": 0.9454525709152222,
                "min": -0.9528970793476255,
